<unk>	0
<s>	0
</s>	0
,	-2.5146
。	-3.43531
的	-3.83105
、	-4.31386
▁	-4.62006
在	-5.09452
"	-5.12976
和	-5.14832
了	-5.44353
:	-5.44819
是	-5.46421
我	-5.85299
有	-5.96706
;	-5.98589
中	-5.99032
)	-6.02759
与	-6.02985
(	-6.06112
?	-6.08493
为	-6.15599
年	-6.19577
对	-6.22578
人	-6.24207
上	-6.24371
他	-6.2852
“	-6.31639
而	-6.34271
等	-6.34956
你	-6.37947
不	-6.39513
时	-6.40881
也	-6.45282
》	-6.46389
大	-6.47972
!	-6.49385
后	-6.49992
就	-6.50768
《	-6.53217
以	-6.55601
到	-6.56339
”	-6.57327
从	-6.57987
我们	-6.58442
一	-6.63747
要	-6.69566
地	-6.69882
来	-6.70246
一个	-6.73203
但	-6.75317
都	-6.75789
将	-6.75825
被	-6.7737
月	-6.78306
用	-6.79492
或	-6.79524
小	-6.80739
说	-6.81362
会	-6.87624
去	-6.87637
自己	-6.88731
她	-6.89881
就是	-6.94174
之	-6.98273
没有	-6.99021
中国	-6.99203
这	-7.00145
可以	-7.02576
下	-7.04149
里	-7.05877
把	-7.06209
工作	-7.06636
多	-7.07451
日	-7.09079
及	-7.0965
这个	-7.09734
可	-7.10705
公司	-7.1206
其	-7.13559
好	-7.13698
并	-7.16057
他们	-7.16741
又	-7.19024
进行	-7.19349
新	-7.20009
能	-7.20023
因为	-7.2077
于	-7.21153
的时候	-7.21772
所以	-7.2333
-	-7.23839
着	-7.2465
水	-7.2488
还	-7.25107
企业	-7.25772
者	-7.2638
1	-7.28289
做	-7.29044
三	-7.29086
高	-7.31699
2	-7.32618
3	-7.32728
但是	-7.33205
个	-7.34726
如果	-7.35553
那	-7.35857
如	-7.3776
过	-7.37912
天	-7.37917
的人	-7.38836
看	-7.39579
前	-7.39992
家	-7.40439
得	-7.40617
通过	-7.4148
5	-7.4201
出	-7.42907
还是	-7.43355
子	-7.43358
点	-7.43528
由	-7.4618
让	-7.46898
再	-7.47591
所	-7.47849
法	-7.50341
当	-7.50545
它	-7.51544
这些	-7.52955
需要	-7.53757
向	-7.54457
市场	-7.54681
最	-7.55468
时间	-7.56012
呢	-7.56513
给	-7.56514
都是	-7.56542
更	-7.56603
无	-7.57472
心	-7.575
山	-7.57984
已经	-7.58045
长	-7.58363
内	-7.58643
问题	-7.59004
:"	-7.60215
成	-7.60728
开始	-7.60977
王	-7.61782
产品	-7.62031
分	-7.62261
一些	-7.62263
市	-7.64569
或者	-7.6475
生	-7.65746
4	-7.66159
以及	-7.66347
也是	-7.67987
对于	-7.68082
使用	-7.6928
10	-7.70483
学	-7.70862
发展	-7.71532
道	-7.7156
孩子	-7.71712
技术	-7.71753
之后	-7.7233
却	-7.72395
二	-7.72495
这种	-7.72808
学习	-7.72863
比	-7.7296
金	-7.7379
管理	-7.74673
则	-7.75719
花	-7.75937
国家	-7.76627
现在	-7.76948
作为	-7.77137
很	-7.77457
老	-7.77574
这样	-7.77629
那么	-7.77688
很多	-7.79284
外	-7.79574
区	-7.79638
要求	-7.80009
自己的	-7.80041
不是	-7.81574
服务	-7.81576
想	-7.81812
该	-7.819
选择	-7.82369
本	-7.82454
自	-7.83118
名	-7.83268
项目	-7.83447
开	-7.83455
系统	-7.83456
吗	-7.83681
教育	-7.83828
生活	-7.84039
吧	-7.84904
·	-7.85365
同时	-7.85627
成为	-7.85876
四	-7.86201
化	-7.86431
6	-7.86839
第	-7.87721
学校	-7.88111
路	-7.88512
已	-7.89063
打	-7.89302
不能	-7.89807
发	-7.89923
而且	-7.90247
张	-7.9075
使	-7.91398
什么	-7.92213
因此	-7.92556
老师	-7.9279
文	-7.9381
头	-7.93883
美国	-7.93904
车	-7.93933
正	-7.94096
学生	-7.94343
还有	-7.9478
至	-7.94786
线	-7.95199
李	-7.95507
行	-7.9672
元	-7.96759
其实	-7.97226
因	-7.97333
书	-7.97585
只有	-7.97673
五	-7.97748
活动	-7.97777
起	-7.97937
投资	-7.98111
马	-7.98688
这是	-7.98806
啊	-7.99193
爱	-7.99311
一样	-7.99591
国	-7.9986
才	-8.00702
气	-8.00742
虽然	-8.00952
8	-8.01303
7	-8.01357
没	-8.01565
然后	-8.01754
门	-8.01805
像	-8.02282
德	-8.02966
先	-8.03054
设计	-8.03105
白	-8.0312
文化	-8.03183
可能	-8.0354
只	-8.03716
最后	-8.03817
能力	-8.04079
行业	-8.04269
两	-8.0438
海	-8.04511
即	-8.04539
神	-8.04634
信息	-8.05138
应	-8.0548
经	-8.057
万	-8.05842
建设	-8.06646
能够	-8.07001
专业	-8.07228
研究	-8.07284
吃	-8.07795
由于	-8.08872
发现	-8.08991
号	-8.09044
世界	-8.09126
组织	-8.09127
县	-8.09304
走	-8.09639
经济	-8.10415
手	-8.10957
风	-8.11264
大学	-8.11282
光	-8.11855
红	-8.11963
如何	-8.12215
明	-8.12266
不同	-8.13355
出现	-8.1357
美	-8.13803
提供	-8.13887
西	-8.13905
一般	-8.14404
只是	-8.14443
根据	-8.14513
20	-8.14526
面	-8.15243
包括	-8.15343
其他	-8.1555
跟	-8.15966
方	-8.15978
城	-8.16151
分析	-8.16761
其中	-8.16769
林	-8.16815
为了	-8.17023
同	-8.17187
机	-8.18032
不过	-8.18063
大家	-8.19243
甚至	-8.1935
直接	-8.19359
清	-8.19373
方法	-8.19473
云	-8.19565
式	-8.19581
带	-8.20007
们	-8.20111
社会	-8.20346
加	-8.2037
事	-8.20667
全	-8.20723
部	-8.21012
目前	-8.21024
龙	-8.2125
主	-8.21413
黄	-8.21484
比如	-8.22326
情况	-8.22499
进入	-8.22686
平	-8.22841
方式	-8.2287
各	-8.22893
9	-8.22912
认为	-8.23134
拉	-8.2336
村	-8.23749
力	-8.2391
军	-8.24043
:“	-8.24328
非常	-8.24418
入	-8.24459
钱	-8.24761
重	-8.25254
处	-8.25297
不要	-8.25592
便	-8.25683
网	-8.26548
内容	-8.26745
个人	-8.26793
东	-8.26873
数	-8.26949
图	-8.26951
你的	-8.27238
平台	-8.27489
连	-8.27695
的话	-8.27763
总	-8.27886
。”	-8.27899
实现	-8.28153
写	-8.28274
单	-8.28545
进	-8.2858
南	-8.28585
数据	-8.28892
那些	-8.29635
华	-8.29722
品牌	-8.29827
此	-8.29966
回	-8.301
口	-8.30229
太	-8.3025
干	-8.30253
死	-8.30255
安	-8.30406
▁(	-8.30431
非	-8.30522
价格	-8.30775
作	-8.3097
部分	-8.3126
比较	-8.31312
按	-8.31475
必须	-8.31699
方面	-8.32065
之前	-8.32156
见	-8.32548
城市	-8.32902
字	-8.33101
具有	-8.33138
量	-8.33154
陈	-8.33326
关于	-8.33364
各种	-8.33573
看到	-8.33831
中的	-8.33939
类	-8.33984
所有	-8.34061
当时	-8.34193
石	-8.34369
业务	-8.34428
主要	-8.34607
结果	-8.34804
他的	-8.34861
火	-8.34943
到了	-8.35046
请	-8.354
关系	-8.35473
以后	-8.3555
强	-8.35655
型	-8.35681
用户	-8.35782
中心	-8.35832
原	-8.36085
当然	-8.36206
计划	-8.36297
影响	-8.36579
12	-8.3689
真	-8.36958
处理	-8.37066
成功	-8.37201
国际	-8.37201
度	-8.37306
应该	-8.37475
少	-8.37571
获得	-8.37636
负责	-8.37718
克	-8.38169
网络	-8.38362
自然	-8.38689
才能	-8.38804
完成	-8.38873
的是	-8.38971
30	-8.39294
我的	-8.39499
安全	-8.39506
北京	-8.39736
问	-8.40164
相	-8.40248
除了	-8.40611
政府	-8.41008
控制	-8.4121
工程	-8.41265
位	-8.41863
一次	-8.4191
六	-8.41998
管	-8.42096
买	-8.42137
未	-8.42182
人员	-8.42373
局	-8.42403
起来	-8.42506
转	-8.4277
次	-8.42872
米	-8.42876
别人	-8.43024
生产	-8.43256
达	-8.43494
标准	-8.43511
决定	-8.43516
表示	-8.43615
为什么	-8.43807
提高	-8.43873
刘	-8.43892
体	-8.44069
卡	-8.44271
你们	-8.44292
受	-8.44323
就会	-8.44504
继续	-8.44823
拥有	-8.4494
全国	-8.45064
父母	-8.45142
一下	-8.45731
站	-8.45875
周	-8.45962
热	-8.46135
有些	-8.464
未来	-8.46565
环境	-8.46655
这样的	-8.46661
希望	-8.46933
人们	-8.47258
一种	-8.47353
难	-8.47516
通	-8.47662
利用	-8.47704
无法	-8.48143
不会	-8.48359
若	-8.48408
特	-8.48504
来说	-8.48593
的问题	-8.48715
病	-8.48796
这一	-8.49145
且	-8.49201
一起	-8.49561
第一	-8.4962
低	-8.49736
功能	-8.49738
期	-8.49848
师	-8.50018
单位	-8.50022
并且	-8.50156
以上	-8.50425
按照	-8.50426
听	-8.50435
阿	-8.50708
每	-8.50771
镇	-8.51159
身	-8.51228
而是	-8.51547
女	-8.518
您	-8.52129
黑	-8.52177
后来	-8.52179
种	-8.52666
河	-8.52883
”,	-8.5294
形成	-8.53011
油	-8.5302
两个	-8.5302
声	-8.53059
游戏	-8.53085
罗	-8.53329
一点	-8.53527
木	-8.53606
叫	-8.53619
发生	-8.53726
利	-8.53821
机构	-8.53844
基本	-8.53912
流	-8.53936
酒	-8.54043
谁	-8.54236
一直	-8.54238
教	-8.54283
目标	-8.54424
每天	-8.54474
之间	-8.54536
效果	-8.54641
是否	-8.54734
产业	-8.54807
台	-8.55119
放	-8.55139
努力	-8.5549
色	-8.55625
斯	-8.55649
间	-8.56126
科技	-8.5615
了解	-8.56152
讲	-8.56188
儿	-8.56275
不断	-8.56301
定	-8.56338
喜欢	-8.56559
空	-8.56695
越	-8.56703
只要	-8.56744
上海	-8.56916
客户	-8.56953
交易	-8.57077
得到	-8.57295
相关	-8.57387
读	-8.5744
江	-8.57649
经过	-8.57814
合作	-8.57857
费	-8.5793
历史	-8.58022
变	-8.58102
集团	-8.58492
北	-8.58553
特别	-8.58772
最终	-8.58806
资源	-8.59242
日本	-8.59243
】	-8.59401
飞	-8.59409
近	-8.59625
模式	-8.59641
公	-8.59966
觉得	-8.6013
是一个	-8.60168
增加	-8.6025
教师	-8.60526
”。	-8.60608
香	-8.60629
资金	-8.60663
于是	-8.60802
片	-8.61038
知识	-8.61069
朋友	-8.61157
物	-8.6136
双	-8.61413
完全	-8.61485
政策	-8.61529
精神	-8.61592
治疗	-8.61903
行为	-8.61951
11	-8.62003
作者	-8.62006
坚持	-8.62059
省	-8.62105
达到	-8.62165
销售	-8.62392
曾	-8.62534
科	-8.62589
怎么	-8.62634
提升	-8.62664
建立	-8.62664
知道	-8.62684
设备	-8.62698
之一	-8.6275
房	-8.62778
建	-8.62848
快	-8.62881
约	-8.62916
+	-8.62976
出来	-8.63036
一切	-8.63219
选	-8.63272
别	-8.63523
那个	-8.63841
信	-8.63846
汽车	-8.63849
保护	-8.63975
感	-8.64135
画	-8.64169
边	-8.64388
报	-8.64428
如此	-8.64472
互联网	-8.64527
可是	-8.6455
青	-8.64559
解决	-8.64638
今天	-8.64851
支持	-8.64906
茶	-8.65018
银行	-8.65022
15	-8.65125
健康	-8.6518
古	-8.65301
称	-8.65521
地区	-8.65584
器	-8.65595
家庭	-8.65668
这里	-8.65807
场	-8.6603
申请	-8.66052
找	-8.66091
阳	-8.66138
八	-8.66224
制	-8.66306
价值	-8.66638
整个	-8.66807
人生	-8.66871
条	-8.66899
建议	-8.67406
七	-8.6744
准备	-8.67672
参加	-8.67922
作用	-8.68092
有关	-8.68247
采用	-8.68441
药	-8.68569
春	-8.68626
情	-8.68651
更加	-8.68799
岁	-8.69014
一定要	-8.69017
某	-8.69119
随着	-8.69204
操作	-8.69274
合	-8.69418
国内	-8.69446
空间	-8.69447
正在	-8.69653
任何	-8.697
感觉	-8.69788
许多	-8.70044
杨	-8.70189
创新	-8.70327
产生	-8.70337
鱼	-8.70562
旅游	-8.7074
集	-8.7076
的地方	-8.70954
常	-8.70994
系	-8.71339
叶	-8.71458
表	-8.71554
有限公司	-8.71622
艺术	-8.71639
第二	-8.71869
成本	-8.72051
皮	-8.72277
a	-8.72483
关注	-8.72572
九	-8.72877
手机	-8.72938
结构	-8.73077
材料	-8.73122
乐	-8.73212
真正	-8.73359
改变	-8.73368
条件	-8.73691
率	-8.73753
眼	-8.73776
权	-8.73957
包	-8.74221
介绍	-8.74263
然而	-8.74472
帮助	-8.74614
基础	-8.74776
水平	-8.74778
十	-8.749
身体	-8.74932
制度	-8.75048
变化	-8.75082
一个人	-8.75149
风险	-8.7522
级	-8.75243
运动	-8.75288
板	-8.75356
全部	-8.75362
远	-8.75433
接受	-8.75474
立	-8.7548
过程中	-8.75589
过去	-8.75737
真的	-8.75935
的事情	-8.75985
班	-8.76106
修	-8.76116
玉	-8.7612
兵	-8.76157
医院	-8.76317
话	-8.76415
妈妈	-8.7645
考试	-8.76514
共	-8.76578
动	-8.76612
土	-8.76663
时代	-8.76756
重点	-8.76857
电影	-8.76881
队	-8.77032
需求	-8.77037
星	-8.77064
传	-8.7708
上的	-8.77119
住	-8.7723
存在	-8.77318
工	-8.77361
开发	-8.7768
半	-8.77951
实施	-8.78205
满	-8.78211
参与	-8.78399
先生	-8.78503
股	-8.78867
今年	-8.79011
教学	-8.79066
另外	-8.79704
经营	-8.80139
取	-8.80284
部门	-8.80349
送	-8.80455
业	-8.80505
战	-8.80521
开展	-8.80523
州	-8.80604
深	-8.80612
也有	-8.8063
商	-8.80794
超	-8.80822
世	-8.80823
收	-8.8086
任	-8.80901
作品	-8.81128
应用	-8.81438
根	-8.81452
规划	-8.8149
)。	-8.81655
卖	-8.81746
都会	-8.81799
的东西	-8.82015
易	-8.82142
调	-8.82624
只能	-8.8267
调整	-8.82795
保持	-8.82944
群	-8.83026
面对	-8.83359
佛	-8.83611
团队	-8.83634
阅读	-8.83675
坐	-8.8376
关	-8.83885
领域	-8.83944
组	-8.83946
刚	-8.84061
传统	-8.84106
专家	-8.84252
科学	-8.8431
执行	-8.84385
盘	-8.84592
规定	-8.84631
树	-8.84639
指导	-8.84766
装	-8.84779
节	-8.84804
拿	-8.84892
经常	-8.84916
建筑	-8.84958
检查	-8.85058
玩	-8.85203
铁	-8.85227
学院	-8.85299
意	-8.85479
电	-8.85547
代表	-8.85774
让我	-8.85946
超过	-8.86028
指	-8.86037
▁第	-8.86139
金融	-8.8633
对方	-8.8637
共同	-8.86467
期间	-8.86588
每个	-8.86652
除	-8.8669
阶段	-8.86831
考	-8.86859
也会	-8.87019
导致	-8.87237
等等	-8.873
提出	-8.8744
理解	-8.87455
店	-8.87463
雪	-8.87487
方向	-8.87549
都有	-8.87938
语	-8.88088
血	-8.88187
属于	-8.88309
均	-8.88314
尔	-8.88361
宝	-8.88396
100	-8.88448
民	-8.88548
首先	-8.88566
如果你	-8.88774
持续	-8.89017
交	-8.89061
的时间	-8.89321
球	-8.89453
质量	-8.89467
左右	-8.89524
诗	-8.89549
总是	-8.89709
反	-8.89834
离	-8.89967
有人	-8.90294
A	-8.90326
进一步	-8.90351
不可	-8.90351
不仅	-8.905
状态	-8.90567
派	-8.90733
经验	-8.90765
楼	-8.90832
人才	-8.90978
我国	-8.91065
生命	-8.91119
桥	-8.91255
观	-8.91304
具体	-8.91309
言	-8.91373
地方	-8.91403
交流	-8.9167
体验	-8.91683
人类	-8.91795
全球	-8.91843
领导	-8.92023
50	-8.92138
购买	-8.92167
布	-8.92329
理论	-8.92365
注意	-8.92553
治	-8.92559
词	-8.92579
「	-8.92618
代	-8.92621
不知道	-8.92774
官	-8.92955
直	-8.9307
换	-8.93206
音乐	-8.93231
品	-8.93237
故	-8.93557
工业	-8.936
菜	-8.93719
章	-8.93763
全面	-8.93904
田	-8.93918
我们的	-8.93939
。《	-8.9419
办	-8.94257
说明	-8.94416
分钟	-8.94781
史	-8.94891
消费	-8.94953
故事	-8.94977
体系	-8.95035
往	-8.95191
令	-8.95288
求	-8.9533
往往	-8.95392
b	-8.95543
证	-8.95701
雨	-8.95836
知	-8.95879
员工	-8.95897
不好	-8.96086
自我	-8.96115
过程	-8.96305
命	-8.96323
提	-8.96563
肉	-8.96639
想要	-8.96658
压力	-8.96668
确定	-8.96673
就可以	-8.96707
十分	-8.96793
这么	-8.96803
重要	-8.96819
万元	-8.96823
并不	-8.96984
推荐	-8.97079
波	-8.97092
就像	-8.97435
卷	-8.97492
团	-8.97509
乡	-8.9754
压	-8.97566
武	-8.97598
还要	-8.97775
受到	-8.9801
草	-8.98031
长期	-8.98079
一位	-8.98251
论	-8.98272
题	-8.98295
笑	-8.98376
结合	-8.98399
福	-8.98515
C	-8.98555
简单	-8.98617
养	-8.98646
何	-8.98682
形	-8.98908
层	-8.98933
法律	-8.98949
跑	-8.98999
里面	-8.99062
机会	-8.99091
汤	-8.99166
现场	-8.99291
应当	-8.99458
版	-8.99477
联系	-8.99532
牛	-8.99607
收入	-8.99641
掉	-8.99697
苏	-8.99739
差	-8.99968
百	-8.99994
思想	-9.00003
靠	-9.00005
更多	-9.0007
基金	-9.00086
刀	-9.00095
最大的	-9.00244
突然	-9.00411
幸福	-9.00459
吴	-9.00673
~	-9.00716
18	-9.00767
背	-9.00768
课程	-9.00795
区域	-9.00838
培养	-9.0094
医生	-9.01032
记者	-9.013
湖	-9.01318
接	-9.01405
家长	-9.01476
c	-9.01504
汉	-9.0153
东西	-9.01643
同学	-9.01796
加强	-9.01806
段	-9.01827
底	-9.01902
志	-9.01924
女人	-9.0196
穿	-9.02015
记	-9.0204
保障	-9.02163
改	-9.02178
任务	-9.02197
来自	-9.02222
训练	-9.02371
新的	-9.02371
做好	-9.02477
梦	-9.02479
同样	-9.02535
政治	-9.02645
首	-9.02721
广	-9.02763
积极	-9.02765
促进	-9.02931
商业	-9.02933
减少	-9.02937
找到	-9.0299
苦	-9.03008
早	-9.03147
资料	-9.03372
微	-9.03765
优势	-9.03821
活	-9.0385
让人	-9.03903
快速	-9.03986
据	-9.04047
英语	-9.04252
培训	-9.0426
笔	-9.04365
食	-9.04529
初	-9.04532
成绩	-9.04635
广告	-9.04658
巴	-9.04813
——	-9.04855
有效	-9.04947
明显	-9.04948
2018	-9.04976
兰	-9.05011
综合	-9.05157
英	-9.05231
塔	-9.05329
轻	-9.0541
善	-9.05523
值	-9.05554
运营	-9.05736
运	-9.05769
的发展	-9.05911
语言	-9.05981
原因	-9.06065
母亲	-9.06131
软件	-9.06188
唐	-9.063
表现	-9.06371
一定	-9.06512
实际	-9.06513
君	-9.0652
园	-9.06578
委员会	-9.06638
再次	-9.06772
力量	-9.06781
留	-9.06785
不得	-9.06817
藏	-9.06952
这次	-9.07081
格	-9.07153
快乐	-9.07331
考虑	-9.07364
消费者	-9.07406
思	-9.07458
现代	-9.07668
义	-9.07723
第一次	-9.078
父亲	-9.07812
课	-9.07979
价	-9.08071
费用	-9.08227
是一种	-9.08253
以前	-9.08261
保证	-9.08316
曾经	-9.08444
即使	-9.08652
相信	-9.08663
它们	-9.08673
战略	-9.0878
亚	-9.08838
属	-9.0884
离开	-9.08952
松	-9.08963
员	-9.09101
媒体	-9.09112
人民	-9.09126
端	-9.09131
报告	-9.09132
终于	-9.09257
电子	-9.09306
合同	-9.09398
保	-9.09407
证明	-9.09493
整体	-9.09686
赵	-9.09698
容易	-9.0974
结	-9.09747
B	-9.09758
重新	-9.09996
亦	-9.10051
骨	-9.10118
冷	-9.10207
造成	-9.10212
室	-9.10332
夜	-9.10343
13	-9.10392
倒	-9.10438
大量	-9.10441
宫	-9.10577
位于	-9.1065
脚	-9.10706
音	-9.10835
责任	-9.1086
占	-9.10885
冲	-9.10891
创业	-9.10913
一年	-9.1093
保险	-9.1095
思考	-9.11135
杀	-9.11151
也可以	-9.11342
带来	-9.11376
就能	-9.11491
制作	-9.11535
校	-9.11567
雷	-9.11592
严重	-9.11671
朝	-9.11745
套	-9.11832
有一个	-9.11841
自由	-9.11862
有了	-9.11864
营销	-9.12027
视频	-9.12034
奖	-9.12042
社区	-9.12163
然	-9.12192
男人	-9.12207
待	-9.12296
文章	-9.12337
破	-9.12352
沙	-9.12364
余	-9.12375
解	-9.12575
伤	-9.12624
患者	-9.12643
完	-9.12686
界	-9.12965
多少	-9.13041
安排	-9.13067
灵	-9.1318
毛	-9.13183
归	-9.13247
增长	-9.13273
谈	-9.13286
主动	-9.13307
成长	-9.13393
尽	-9.13559
粉	-9.13579
几乎	-9.13608
相对	-9.1382
推动	-9.1382
的方式	-9.13858
掌握	-9.1392
人物	-9.13953
基	-9.13998
几	-9.14
乱	-9.14095
更是	-9.14178
歌	-9.1424
例如	-9.14271
投资者	-9.14311
承担	-9.14395
计算	-9.14452
也许	-9.14544
奇	-9.14567
联	-9.14574
居	-9.14579
中央	-9.14612
的事	-9.14658
排	-9.14692
加入	-9.14959
16	-9.15027
分享	-9.15066
第三	-9.15146
并没有	-9.15171
这就是	-9.15233
农业	-9.15236
喝	-9.15242
男	-9.15299
交通	-9.15333
是什么	-9.15495
情绪	-9.15807
灯	-9.1588
景	-9.15917
儿子	-9.15953
方案	-9.16067
」	-9.16124
实	-9.16139
岛	-9.16389
项	-9.16447
角	-9.16493
学会	-9.16494
似乎	-9.16518
一条	-9.16597
圣	-9.16599
农村	-9.16644
曲	-9.1675
办理	-9.16793
位置	-9.16798
独立	-9.16912
孙	-9.16948
行动	-9.16992
14	-9.16999
亿元	-9.1708
款	-9.17087
电话	-9.1711
拍	-9.17122
从而	-9.1716
是不是	-9.17186
补	-9.17191
客	-9.17289
在一起	-9.17473
规模	-9.17524
网站	-9.17588
亿	-9.17654
游	-9.17711
源	-9.17722
人的	-9.17734
心里	-9.1784
一天	-9.18068
追求	-9.18145
40	-9.18173
几个	-9.18189
顶	-9.18277
最好	-9.18359
分别	-9.18383
的生活	-9.18405
院	-9.18461
支付	-9.1848
夏	-9.18549
现	-9.18604
及时	-9.18894
带着	-9.18909
推	-9.1893
落	-9.19084
好的	-9.19143
胡	-9.19186
牌	-9.19221
果	-9.19338
我想	-9.19426
剑	-9.19519
降低	-9.19532
也不	-9.19541
堂	-9.19687
以下	-9.19696
s	-9.19718
就要	-9.19772
香港	-9.19783
下来	-9.19836
有点	-9.1986
。“	-9.19934
精	-9.19981
厂	-9.20039
逐渐	-9.20245
推进	-9.20335
圈	-9.20343
观察	-9.20343
既	-9.20415
错	-9.20439
一家	-9.20481
教授	-9.20505
宁	-9.20536
足	-9.20536
即可	-9.20547
股票	-9.20605
放在	-9.20623
峰	-9.20663
假	-9.20798
满足	-9.20854
左	-9.20883
设置	-9.20905
他们的	-9.21138
给我	-9.21164
千	-9.21189
随	-9.21192
投	-9.21199
赛	-9.21416
旧	-9.21464
普通	-9.21487
享受	-9.21513
事件	-9.21551
来看	-9.21681
阴	-9.217
记录	-9.21729
不足	-9.21808
而言	-9.21886
会议	-9.21889
商品	-9.21895
朱	-9.21922
短	-9.2202
极	-9.22033
爱情	-9.2219
每次	-9.22244
数量	-9.22398
调查	-9.22432
永远	-9.22433
尤其是	-9.22475
亲	-9.22555
胜	-9.22609
贵	-9.22679
工具	-9.2271
土地	-9.22769
一旦	-9.22803
制造	-9.22822
并不是	-9.2283
范围	-9.22849
宋	-9.22874
理	-9.22906
欲	-9.22995
原来	-9.23043
》、《	-9.23044
招	-9.23049
的方法	-9.23092
评价	-9.23138
算	-9.23149
取得	-9.23264
事业	-9.23306
丁	-9.23318
货	-9.23345
断	-9.23383
生态	-9.23473
如今	-9.2356
绿	-9.23673
认识	-9.23675
不同的	-9.23705
有着	-9.23764
我就	-9.2381
优秀	-9.23864
座	-9.23871
甲	-9.23893
2017	-9.24011
印	-9.24092
此外	-9.24119
含	-9.24152
轮	-9.24153
每年	-9.24395
时期	-9.24412
形式	-9.24422
60	-9.24561
宣传	-9.24664
梅	-9.24773
英国	-9.24833
永	-9.24853
/	-9.24902
尽管	-9.24963
兴	-9.25006
正常	-9.25142
之中	-9.25149
是个	-9.25161
成了	-9.25211
件	-9.2528
街	-9.25319
党	-9.25383
船	-9.25599
酒店	-9.25622
纸	-9.2567
篇	-9.25678
秋	-9.25724
从事	-9.25737
符合	-9.25886
天下	-9.25898
新闻	-9.25924
连续	-9.25962
顺	-9.25976
银	-9.25989
宗	-9.26079
看看	-9.26174
氏	-9.26266
所有的	-9.26301
念	-9.2632
智能	-9.26381
她的	-9.26406
规范	-9.26448
读书	-9.26468
沟通	-9.26517
数学	-9.26574
让你	-9.26595
散	-9.26609
此时	-9.26614
川	-9.2664
在这里	-9.26681
搞	-9.26721
步	-9.26726
儿童	-9.2676
细	-9.26892
丝	-9.26904
的小	-9.26947
职业	-9.26994
现象	-9.27039
统一	-9.27043
集中	-9.27141
自身	-9.27183
不少	-9.27195
制定	-9.2724
皮肤	-9.27261
经历	-9.27298
的情况	-9.27314
突破	-9.27332
较	-9.27353
17	-9.27468
夫	-9.27468
晚上	-9.2762
▁"	-9.27683
遇到	-9.27688
正式	-9.27711
机制	-9.2772
戏	-9.2775
一边	-9.27816
案	-9.27833
发布	-9.27851
礼	-9.27883
采取	-9.27891
女儿	-9.28005
改革	-9.28196
老板	-9.2822
针对	-9.28272
速度	-9.28286
梁	-9.28312
料	-9.28315
蓝	-9.28324
本身	-9.28351
仍	-9.28356
必	-9.28486
莫	-9.28629
吉	-9.28656
心理	-9.28659
也没有	-9.28675
核心	-9.28678
股价	-9.28722
唱	-9.28794
投入	-9.28804
失	-9.29093
守	-9.29106
通常	-9.29138
运用	-9.29244
)、	-9.29398
服	-9.29504
迅速	-9.29507
双方	-9.29541
资本	-9.29555
鸡	-9.29564
施工	-9.29646
内部	-9.29701
2019	-9.29803
直到	-9.29845
用于	-9.29846
总结	-9.29846
无论	-9.30019
系列	-9.30077
房地产	-9.30138
程序	-9.30258
不再	-9.303
静	-9.30308
冰	-9.30388
三个	-9.30412
技能	-9.30453
需	-9.30463
看着	-9.30464
g	-9.30465
打开	-9.30492
维	-9.30497
爸爸	-9.30593
文学	-9.30658
稳定	-9.30678
所谓	-9.30739
狗	-9.30849
很多人	-9.30896
思维	-9.30958
讨论	-9.30963
的作用	-9.3102
而不是	-9.31031
资产	-9.31105
寒	-9.31208
推广	-9.31266
25	-9.31387
明确	-9.31455
盖	-9.31498
圆	-9.31516
查	-9.31549
显示	-9.31559
不到	-9.31621
感到	-9.31638
当年	-9.31723
d	-9.31949
纳	-9.3196
因素	-9.3201
呀	-9.32175
趋势	-9.32341
移动	-9.32341
成立	-9.32474
判断	-9.32484
回答	-9.32502
越来越	-9.32585
普	-9.3265
它的	-9.32666
措施	-9.32667
那样	-9.32694
原则	-9.32713
之间的	-9.32744
的一个	-9.32764
处于	-9.32855
回来	-9.32907
特别是	-9.32919
封	-9.32932
块	-9.32982
24	-9.33008
小时	-9.33024
意识	-9.33064
智	-9.33086
士	-9.33241
电脑	-9.33362
微信	-9.33452
肯定	-9.33506
的影响	-9.33592
为主	-9.33601
都在	-9.33634
就业	-9.33793
配	-9.33819
也就是	-9.33904
到底	-9.33941
办公室	-9.34041
运行	-9.34095
了一个	-9.34135
恩	-9.34188
升	-9.34199
至少	-9.34202
事情	-9.34271
我是	-9.34313
照	-9.34345
洗	-9.34348
配合	-9.34355
m	-9.34371
防	-9.34421
徐	-9.34548
衣	-9.3455
素	-9.34615
身上	-9.34776
都要	-9.34914
改善	-9.34918
考生	-9.34961
最近	-9.35047
解释	-9.35132
小学	-9.3515
野	-9.35201
指标	-9.35355
烟	-9.35656
复	-9.35769
今	-9.35781
温	-9.35893
怕	-9.35999
仙	-9.36003
比赛	-9.36008
特色	-9.3603
状	-9.36033
一份	-9.36045
齐	-9.36099
的工作	-9.36102
创造	-9.36112
才是	-9.36118
味	-9.36171
联合	-9.36219
富	-9.36436
19	-9.36657
库	-9.36758
毕竟	-9.36771
质	-9.36868
哥	-9.3691
喜	-9.36914
医疗	-9.36983
康	-9.37033
群众	-9.37061
动作	-9.37063
的故事	-9.3713
利益	-9.37148
最高	-9.37179
令人	-9.37219
行政	-9.37315
睡	-9.37336
民族	-9.37373
距离	-9.37427
依然	-9.37431
退	-9.37441
秀	-9.37503
给予	-9.37558
很难	-9.37607
大部分	-9.37635
产	-9.37716
回家	-9.37722
我觉得	-9.37862
咨询	-9.37924
鼓励	-9.38049
的感觉	-9.38073
完善	-9.38143
会员	-9.38193
说话	-9.38213
寺	-9.38245
影	-9.38284
哈	-9.38301
借	-9.38319
不了	-9.38388
来到	-9.38389
给你	-9.38516
翻	-9.38577
的孩子	-9.38616
测试	-9.38626
临	-9.38637
打造	-9.38655
文件	-9.38659
文明	-9.38672
自动	-9.38714
智慧	-9.38769
挂	-9.38798
结束	-9.38821
避免	-9.38865
脸	-9.38897
仍然	-9.38953
安装	-9.38973
困难	-9.39005
的原因	-9.39078
鬼	-9.39091
盐	-9.39228
维护	-9.39273
财	-9.39314
否则	-9.39334
尼	-9.39385
特点	-9.39397
协会	-9.39453
公开	-9.39485
象	-9.39551
面试	-9.39594
慢慢	-9.39633
面前	-9.39719
谷	-9.39765
友	-9.39766
变成	-9.3987
老人	-9.39968
一场	-9.40118
洞	-9.40208
虎	-9.40225
放弃	-9.40253
望	-9.40256
帮	-9.40261
也要	-9.40363
不知	-9.40378
亮	-9.40424
程度	-9.40451
上面	-9.4071
食品	-9.40748
世纪	-9.40752
当地	-9.40843
确实	-9.41037
不管	-9.41082
难以	-9.41084
孔	-9.41084
下面	-9.41145
上述	-9.41188
仁	-9.41197
面积	-9.41218
做出	-9.41234
的关系	-9.41272
习惯	-9.41282
痛	-9.41343
贷款	-9.41384
些	-9.41391
视	-9.41428
政	-9.41457
计算机	-9.41466
加工	-9.41485
丽	-9.41495
我也	-9.41499
0	-9.41511
不用	-9.41603
细胞	-9.41606
啦	-9.41664
仅	-9.41749
户	-9.41776
怎样	-9.41863
80	-9.41948
重大	-9.41963
是在	-9.42065
恢复	-9.42148
变得	-9.42256
是指	-9.42363
公里	-9.42385
2016	-9.42435
的情况下	-9.42676
切	-9.4268
电视	-9.42683
感受	-9.42701
右	-9.42733
句	-9.42784
站在	-9.42829
及其	-9.42875
做到	-9.42878
的能力	-9.4296
虚	-9.43078
方便	-9.43082
文字	-9.43336
家里	-9.43362
让他	-9.43388
托	-9.43418
的机会	-9.43433
提前	-9.43506
眼睛	-9.43558
卫生	-9.43569
倍	-9.43661
让我们	-9.43711
深圳	-9.43728
试	-9.43788
设	-9.43849
数字	-9.43852
竞争	-9.43921
渠道	-9.43935
或许	-9.43954
她们	-9.43986
练	-9.44193
这时	-9.44241
听到	-9.44255
21	-9.44373
盛	-9.44489
皆	-9.44537
雅	-9.44662
真正的	-9.44724
票	-9.44774
博	-9.44786
副	-9.44789
感情	-9.44835
适合	-9.44901
墙	-9.4491
回到	-9.45045
横	-9.45083
瑞	-9.45117
检测	-9.45172
里的	-9.45172
G	-9.45228
好像	-9.45235
k	-9.45254
供	-9.45321
须	-9.45368
做了	-9.45368
实行	-9.45417
协调	-9.45499
革命	-9.45729
闻	-9.45815
农	-9.45894
许	-9.4597
表达	-9.4604
发挥	-9.46057
体育	-9.46098
青年	-9.46139
作业	-9.46185
反应	-9.46195
正是	-9.46205
平时	-9.46336
形象	-9.46349
剧	-9.46438
罪	-9.46487
实际上	-9.46488
的内容	-9.46492
动物	-9.46642
生物	-9.46702
中间	-9.46762
降	-9.46787
族	-9.46825
寻找	-9.46863
帝	-9.46901
整理	-9.46911
有个	-9.46912
竹	-9.47061
追	-9.4707
相互	-9.47109
错误	-9.47118
环	-9.47195
协议	-9.47228
规则	-9.47363
风格	-9.47398
接触	-9.47429
一片	-9.47502
现实	-9.47585
绝	-9.47591
主要是	-9.4763
引导	-9.47818
存	-9.47844
引起	-9.47899
支	-9.47942
两人	-9.47954
也就	-9.48016
酸	-9.4804
车辆	-9.48098
展示	-9.48157
p	-9.48255
相比	-9.48304
池	-9.48314
植物	-9.4832
P	-9.48532
奥	-9.48576
答	-9.48576
进行了	-9.48597
偏	-9.48656
学科	-9.48682
泰	-9.48751
零	-9.4876
很快	-9.48777
下降	-9.48831
实践	-9.48853
很大	-9.48877
意见	-9.48919
哦	-9.4901
多次	-9.49028
威	-9.4906
糖	-9.49281
最好的	-9.49294
值得	-9.49526
都能	-9.49648
出了	-9.49681
明白	-9.49844
死亡	-9.49851
台湾	-9.49928
跳	-9.49945
最重要的	-9.49949
认真	-9.49966
高考	-9.50044
人家	-9.50179
秦	-9.50197
挑战	-9.50205
缺乏	-9.50293
抓	-9.50307
200	-9.50318
定位	-9.50414
创作	-9.50418
流量	-9.50422
软	-9.50467
练习	-9.50588
独	-9.50665
监管	-9.50692
更多的	-9.50706
D	-9.50777
毒	-9.50801
脑	-9.50806
不够	-9.50839
的重要	-9.50894
利润	-9.50898
大型	-9.50971
获	-9.50974
去了	-9.51021
德国	-9.51068
硬	-9.51108
来了	-9.51142
列	-9.51287
他说	-9.51476
母	-9.5151
之外	-9.51558
人口	-9.51573
优化	-9.51585
确保	-9.51609
饭	-9.5161
高校	-9.51631
还能	-9.51815
监督	-9.51851
当你	-9.51903
物流	-9.51932
强调	-9.5195
使得	-9.52008
港	-9.52083
网上	-9.52104
限制	-9.52296
这位	-9.52303
中学	-9.52327
程	-9.52345
年度	-9.52346
策略	-9.52354
有所	-9.52364
上市	-9.52393
记忆	-9.52643
真实	-9.52733
办法	-9.52759
诸	-9.52759
领	-9.52768
的过程	-9.53006
对象	-9.53108
贴	-9.53135
小说	-9.53135
传播	-9.53273
丰富	-9.5335
t	-9.53367
出来的	-9.53438
就在	-9.53579
引	-9.53599
都没有	-9.5366
战争	-9.53688
还在	-9.53728
以来	-9.53756
合理	-9.53791
技巧	-9.538
丹	-9.53846
实验	-9.53882
拍摄	-9.539
造	-9.53976
确认	-9.54009
T	-9.54096
基地	-9.54147
深入	-9.54223
手段	-9.54308
晚	-9.54367
剂	-9.5444
"、"	-9.54582
暗	-9.54586
曰	-9.54588
荣	-9.5466
免费	-9.54673
颜色	-9.54742
恶	-9.54866
每一个	-9.54916
广州	-9.54969
虽	-9.55021
连接	-9.55112
工资	-9.55198
腿	-9.55272
意义	-9.55286
陆	-9.55286
伤害	-9.55338
疾病	-9.55375
支撑	-9.55416
充分	-9.55444
担心	-9.55545
500	-9.55618
成就	-9.55645
记得	-9.55706
一张	-9.55753
谢	-9.55754
出口	-9.55823
背景	-9.55832
鲁	-9.55859
众	-9.55874
则是	-9.55941
设施	-9.55944
脱	-9.55945
开放	-9.5597
医学	-9.55999
主题	-9.56061
编	-9.56066
2015	-9.56095
凡	-9.56107
展	-9.56386
物质	-9.5652
不如	-9.56529
烧	-9.56549
郑	-9.56567
第一个	-9.56841
月份	-9.56955
登记	-9.57187
有时	-9.57266
黄金	-9.5731
女孩	-9.57485
有什么	-9.57522
社	-9.57563
太阳	-9.57723
称为	-9.57857
宽	-9.5803
痛苦	-9.58045
钢	-9.58049
S	-9.58061
告诉	-9.58074
增	-9.58148
本人	-9.58149
枪	-9.5816
90	-9.58177
英雄	-9.58251
架	-9.58253
玩家	-9.58275
看来	-9.58278
韩	-9.58324
机关	-9.58361
写作	-9.58365
耳	-9.58371
。【	-9.58418
注	-9.58427
事实	-9.58457
模型	-9.58472
愿意	-9.58478
伊	-9.58489
效率	-9.58505
下去	-9.58542
复杂	-9.58657
基于	-9.58689
穴	-9.58714
尾	-9.58912
不想	-9.58992
吃饭	-9.59017
房子	-9.59026
馆	-9.59169
有很多	-9.59324
其它	-9.59348
节目	-9.59363
哪	-9.59366
概念	-9.59423
是因为	-9.59428
等待	-9.59487
2000	-9.59533
纯	-9.59534
统计	-9.5959
整	-9.59595
疫情	-9.59717
厚	-9.59775
成熟	-9.59798
弱	-9.59813
尚	-9.59873
出去	-9.59893
逐步	-9.59994
那种	-9.59995
尊重	-9.59997
补充	-9.60054
大多数	-9.60182
周期	-9.60199
彻底	-9.60267
财富	-9.60278
杯	-9.60287
大概	-9.60331
在这个	-9.60347
增强	-9.60369
加上	-9.60379
的同时	-9.60395
可能会	-9.6044
岗位	-9.60456
弹	-9.60456
比例	-9.60456
农民	-9.60528
各类	-9.60544
失败	-9.60602
评估	-9.60677
高级	-9.60757
紧	-9.60793
持	-9.60868
组成	-9.60881
预测	-9.60894
注册	-9.61002
年代	-9.61017
特征	-9.61025
的行为	-9.61036
府	-9.61086
上涨	-9.61152
庄	-9.61224
工艺	-9.61353
急	-9.61406
平衡	-9.61441
魔	-9.61519
欧洲	-9.61545
施	-9.61555
慢	-9.61596
塞	-9.61599
探索	-9.61612
看见	-9.61655
刷	-9.61696
▁第一百	-9.6171
给他	-9.61727
宝宝	-9.6185
上升	-9.61905
标	-9.61913
指出	-9.62015
绿色	-9.62052
过来	-9.62065
良	-9.6215
郭	-9.62155
井	-9.62207
以为	-9.62221
洛	-9.62346
23	-9.62424
岩	-9.62475
报名	-9.62498
似	-9.62532
高中	-9.62563
情况下	-9.62593
贸易	-9.62619
救	-9.62628
真是	-9.6263
还可以	-9.62632
居民	-9.62742
液	-9.62746
当中	-9.62806
依	-9.6282
委	-9.62836
后面	-9.6284
会有	-9.62866
布局	-9.62973
声音	-9.62978
?”	-9.6303
猪	-9.63077
▁《	-9.63383
结婚	-9.63383
瓦	-9.6342
异	-9.63424
有时候	-9.63438
工作人员	-9.63504
改造	-9.63508
在中国	-9.63603
针	-9.63638
流程	-9.63702
一名	-9.63753
腰	-9.63769
动力	-9.63789
吸引	-9.63798
三年	-9.63803
术	-9.63812
蒙	-9.63876
人民政府	-9.63897
太多	-9.63933
2020	-9.63988
势	-9.64049
中国人	-9.64055
》《	-9.64156
的朋友	-9.64177
梦想	-9.6422
税	-9.64319
京	-9.6435
具备	-9.64358
研发	-9.64383
消息	-9.64408
观众	-9.64524
固定	-9.64734
斗	-9.64784
手术	-9.64788
通知	-9.64804
食物	-9.64805
宜	-9.6482
我在	-9.64841
重视	-9.64865
挺	-9.64871
攻击	-9.64925
衣服	-9.64944
顾客	-9.6504
都可以	-9.65066
计	-9.651
根本	-9.6512
涨	-9.65246
净	-9.65251
功	-9.65318
鸟	-9.65335
彩	-9.6536
劳动	-9.65426
扩大	-9.65533
细节	-9.65541
上了	-9.65551
环保	-9.65559
的产品	-9.65571
印度	-9.65608
厅	-9.65615
年轻	-9.65656
信号	-9.65687
紧张	-9.65687
而已	-9.65749
森	-9.65924
答案	-9.65966
个月	-9.66053
伯	-9.66079
参考	-9.66105
作文	-9.66209
收益	-9.6625
突出	-9.66274
逻辑	-9.66278
哪些	-9.66299
举	-9.66315
劲	-9.66333
佳	-9.66349
终	-9.66447
--	-9.6646
律师	-9.66495
指数	-9.6653
损失	-9.66723
涉及	-9.66774
表演	-9.66811
末	-9.66815
一只	-9.66839
目	-9.66869
侧	-9.66878
无论是	-9.66988
组合	-9.67114
泉	-9.6713
实力	-9.67158
缘	-9.6719
70	-9.67208
充满	-9.67217
轻松	-9.67243
至于	-9.67287
还会	-9.67336
一生	-9.67337
机械	-9.67367
牙	-9.67368
去年	-9.67374
不敢	-9.67378
不需要	-9.675
冬	-9.67548
法国	-9.67611
阳光	-9.6762
强化	-9.67637
类型	-9.67664
也能	-9.67672
杰	-9.67683
洪	-9.67712
失去	-9.67742
平均	-9.67801
经典	-9.67815
愿	-9.67817
反而	-9.67887
启动	-9.67903
晓	-9.67917
犯	-9.67931
护	-9.67983
正确	-9.68051
成员	-9.68089
抢	-9.68149
l	-9.68156
高度	-9.68162
股份	-9.68163
墨	-9.68166
他人	-9.68257
严	-9.68296
身边	-9.68321
依据	-9.68352
干部	-9.68373
哭	-9.68388
多了	-9.6839
应该是	-9.68396
适应	-9.68483
不可能	-9.68519
载	-9.68522
拒绝	-9.686
创	-9.68611
怀	-9.68614
或是	-9.68641
形态	-9.68687
多个	-9.68706
在于	-9.68727
目的	-9.6876
h	-9.68793
羊	-9.6881
案例	-9.68824
久	-9.68852
房屋	-9.68874
舞	-9.68893
密	-9.68904
2010	-9.68944
著名	-9.68947
评	-9.69098
一块	-9.69101
负责人	-9.69139
o	-9.6917
获取	-9.69198
婚姻	-9.69207
考核	-9.69237
关心	-9.69277
2014	-9.69307
宇	-9.69395
医	-9.69414
角色	-9.69422
大师	-9.69424
当前	-9.69516
担任	-9.69577
具	-9.69589
e	-9.69718
皇帝	-9.69759
山东	-9.69799
孩子的	-9.69855
营	-9.69865
温度	-9.69901
的大	-9.69953
财务	-9.70012
抗	-9.70056
股市	-9.70103
L	-9.70104
融资	-9.70108
相当	-9.70109
道路	-9.70118
猫	-9.70126
致	-9.70257
核	-9.70278
运输	-9.70292
脉	-9.70373
就有	-9.70488
刺激	-9.70624
能量	-9.70643
内心	-9.70685
M	-9.7071
最大	-9.70752
铜	-9.70769
诺	-9.70802
读者	-9.70804
泽	-9.70813
还没有	-9.70819
好了	-9.70859
反映	-9.70869
人体	-9.70871
休息	-9.70966
【	-9.70972
赚钱	-9.71047
绝对	-9.71111
床	-9.71125
复习	-9.71147
校园	-9.71179
环节	-9.71225
怪	-9.71295
季	-9.713
构成	-9.71314
停	-9.71415
22	-9.71482
理念	-9.7155
专	-9.71572
登	-9.71779
特殊	-9.71846
才会	-9.71885
1000	-9.71915
升级	-9.71933
的学生	-9.71974
心中	-9.71989
进步	-9.72008
那里	-9.72014
专门	-9.72025
二是	-9.72029
修改	-9.72056
常常	-9.72105
反复	-9.72126
期待	-9.7217
尝试	-9.7228
28	-9.72303
随后	-9.72346
折	-9.72379
依法	-9.72483
附近	-9.72512
类似	-9.72513
杜	-9.72578
下跌	-9.72607
会计	-9.72634
始终	-9.72646
中国的	-9.72669
自信	-9.72794
钟	-9.72907
的要求	-9.7297
飞机	-9.72985
家人	-9.73003
的一种	-9.73182
把握	-9.73198
博士	-9.73381
至今	-9.7342
发行	-9.73434
理想	-9.73443
溪	-9.73476
嘴	-9.73505
落实	-9.73527
情感	-9.73597
更新	-9.73747
300	-9.7377
摆	-9.73773
矛盾	-9.73781
毕业	-9.73799
珠	-9.73803
公司的	-9.73807
聚	-9.73809
年龄	-9.73843
招聘	-9.7389
的声音	-9.73896
场景	-9.73951
这也是	-9.74012
弄	-9.74036
马上	-9.74061
部队	-9.74064
卫	-9.74086
立即	-9.74192
敌	-9.74223
军事	-9.74301
嘉	-9.74412
中医	-9.7442
证券	-9.74466
巨大的	-9.74486
营养	-9.74532
这一点	-9.74594
付出	-9.74609
地位	-9.74652
美元	-9.7467
集体	-9.74714
兄弟	-9.74732
最佳	-9.74753
各个	-9.74794
”、“	-9.74812
报道	-9.74816
一段	-9.74841
你可以	-9.74884
湿	-9.74906
紫	-9.74916
审核	-9.74923
庆	-9.74926
互相	-9.74939
线上	-9.74949
竟然	-9.74963
E	-9.74976
》(	-9.74978
一句	-9.75144
铺	-9.75281
分为	-9.75305
顾	-9.75381
作出	-9.75471
刚刚	-9.75493
妻子	-9.75508
泡	-9.75513
呈	-9.75578
表面	-9.7562
采购	-9.75654
装备	-9.75661
态度	-9.75732
年的	-9.7575
严格	-9.75765
很好	-9.75821
苹果	-9.75861
规律	-9.75908
一是	-9.75919
雄	-9.7595
普遍	-9.75984
凉	-9.76028
浅	-9.76106
如下	-9.76143
导演	-9.7616
控	-9.76176
伟	-9.76205
娱乐	-9.76229
出现了	-9.76232
容	-9.76331
下午	-9.7638
原文地址	-9.76489
坑	-9.76533
走了	-9.76553
薄	-9.7659
到达	-9.76659
案件	-9.76725
工厂	-9.76812
f	-9.76829
好好	-9.76868
丰	-9.76907
股东	-9.77018
K	-9.77031
x	-9.7719
接近	-9.77206
众多	-9.77216
民间	-9.77235
鞋	-9.77263
走向	-9.77289
2012	-9.77303
吹	-9.77314
2013	-9.77362
哪个	-9.77428
第四	-9.77459
直播	-9.7746
推出	-9.77518
状况	-9.77522
先后	-9.77541
图片	-9.77545
有没有	-9.77702
吸收	-9.77742
大众	-9.77756
乘	-9.77767
箱	-9.77806
他在	-9.77867
品质	-9.77906
照片	-9.77911
化学	-9.77914
生存	-9.77917
包装	-9.78
速	-9.78164
前面	-9.78343
n	-9.78406
让孩子	-9.78474
2008	-9.78475
第二天	-9.78493
欧	-9.78513
电商	-9.78553
发表	-9.78575
俄罗斯	-9.7858
留下	-9.78599
柳	-9.786
重庆	-9.78635
那是	-9.78693
熟	-9.78708
坐在	-9.78797
屋	-9.78799
物理	-9.78819
有的	-9.78845
融合	-9.78848
忙	-9.78873
关键	-9.78888
贤	-9.78928
行情	-9.79033
凤	-9.79042
炒	-9.79097
公园	-9.79138
我要	-9.79185
公共	-9.79194
少年	-9.79198
贝	-9.79407
机场	-9.7944
决策	-9.79441
认定	-9.79475
鼓	-9.79537
一套	-9.79542
西方	-9.79578
戴	-9.79589
广东	-9.79603
这个问题	-9.79623
迪	-9.79644
感谢	-9.79652
职	-9.79668
抽	-9.79699
铁路	-9.79711
煮	-9.79739
采	-9.79826
时候	-9.79861
地球	-9.79863
2011	-9.79904
兼	-9.79904
维持	-9.79919
减	-9.7995
提供了	-9.79959
26	-9.79983
宣布	-9.80035
事实上	-9.80054
广大	-9.80107
防止	-9.8019
录取	-9.80211
大家都	-9.80213
分配	-9.80225
货币	-9.80266
的力量	-9.80346
混	-9.80357
惠	-9.80371
武汉	-9.80395
公路	-9.80409
南京	-9.80436
累	-9.80475
配置	-9.80502
意外	-9.80528
乃	-9.80628
昌	-9.80637
病人	-9.8064
的变化	-9.80657
出版	-9.80754
同意	-9.80951
并非	-9.81047
考研	-9.81171
垃圾	-9.81181
又是	-9.81223
你要	-9.8127
贡献	-9.81348
欢迎	-9.81403
对比	-9.81411
良好的	-9.81434
加快	-9.81445
成都	-9.81486
演员	-9.81514
优	-9.8156
韩国	-9.8157
露	-9.81603
思路	-9.8164
的主要	-9.81662
滑	-9.81719
略	-9.81768
刺	-9.81793
仪	-9.81967
效应	-9.81976
游客	-9.82155
的过程中	-9.82162
显	-9.82217
过了	-9.82234
明天	-9.82241
积累	-9.82348
重复	-9.82401
呼吸	-9.82493
柱	-9.82596
女生	-9.82606
麦	-9.82815
展开	-9.82823
考察	-9.8284
全市	-9.82865
虫	-9.82959
另一个	-9.82984
隆	-9.83035
破坏	-9.83058
粉丝	-9.83103
在此	-9.83201
成果	-9.83314
法院	-9.83321
作家	-9.83332
熟悉	-9.83409
街道	-9.83424
我说	-9.83454
麻	-9.83535
y	-9.83585
份	-9.83605
什么样的	-9.83608
姜	-9.8361
腾讯	-9.83613
大小	-9.83688
收到	-9.83725
却是	-9.83732
共和国	-9.83768
顺利	-9.83827
生长	-9.83837
刻	-9.83878
群体	-9.83899
]	-9.83983
丈夫	-9.83994
魏	-9.84041
宇宙	-9.84109
收购	-9.84167
观点	-9.84169
镜	-9.842
害怕	-9.84477
设立	-9.84477
研究生	-9.84494
旅行	-9.84524
此次	-9.84545
主义	-9.84554
样	-9.84566
而不	-9.84596
翻译	-9.84619
吸	-9.84748
玻璃	-9.84778
提醒	-9.84857
坏	-9.85074
演	-9.85085
伦	-9.85138
祖	-9.8514
景区	-9.85178
臣	-9.85194
摄影	-9.85227
欣赏	-9.85251
艾	-9.85257
潮	-9.85323
赚	-9.85326
主体	-9.85351
搜索	-9.85371
w	-9.85406
奖励	-9.85423
陵	-9.85489
老公	-9.85492
的样子	-9.85547
灰	-9.85563
额	-9.85595
明星	-9.85598
之下	-9.85651
见到	-9.85686
敢	-9.85695
装修	-9.85696
本来	-9.85804
业绩	-9.85865
挑	-9.85928
对此	-9.85955
主力	-9.86036
岁的	-9.8604
呈现	-9.86047
可能是	-9.8606
上下	-9.86072
一段时间	-9.86078
也不是	-9.86118
整合	-9.86235
也不会	-9.8637
么	-9.86402
调节	-9.86448
也在	-9.86457
锁	-9.86525
职工	-9.86553
首次	-9.86561
博物馆	-9.86597
洋	-9.86617
让自己	-9.86663
分类	-9.86687
既然	-9.86718
编辑	-9.86728
仿佛	-9.86759
沈	-9.86787
轴	-9.8682
发出	-9.86827
附	-9.86895
接下来	-9.86897
所谓的	-9.8699
尽量	-9.87029
司	-9.87106
扣	-9.8711
27	-9.87188
旁	-9.87251
意味着	-9.87252
很容易	-9.87316
燕	-9.87335
浮	-9.87336
懂	-9.87393
收集	-9.87466
届	-9.87524
修复	-9.8757
十年	-9.87581
跟着	-9.87648
构建	-9.87654
多种	-9.87672
放入	-9.87881
越来越多	-9.87884
现在的	-9.87945
觉	-9.87987
舍	-9.88011
财产	-9.88018
。2	-9.88025
兴趣	-9.8803
转型	-9.88044
批准	-9.8808
买了	-9.88151
将来	-9.88185
例	-9.88201
进口	-9.88209
鲜	-9.88224
不得不	-9.88316
重要的	-9.88316
美丽	-9.88407
索	-9.88496
!”	-9.88501
打击	-9.88542
评论	-9.88544
身份	-9.88559
那就	-9.88654
两种	-9.88657
—	-9.88662
道德	-9.8868
很少	-9.88699
后期	-9.88706
哲学	-9.88721
药物	-9.88723
国外	-9.88784
人士	-9.88816
也就是说	-9.88828
在线	-9.88836
社会主义	-9.88838
东方	-9.88856
危机	-9.88872
照顾	-9.8888
H	-9.88905
覆盖	-9.88906
广泛	-9.8897
想到	-9.88995
互动	-9.89022
财政	-9.89088
了很多	-9.89099
必然	-9.8914
给自己	-9.89147
u	-9.89207
科研	-9.89237
遇	-9.89247
课堂	-9.89262
还没	-9.8927
止	-9.89296
教材	-9.89376
遍	-9.89397
理由	-9.89423
开心	-9.89427
点击	-9.89439
人民币	-9.89481
唯一	-9.89488
的需求	-9.89527
曼	-9.89532
预防	-9.8962
瓶	-9.89685
等级	-9.89715
更好的	-9.89727
将会	-9.89735
体现	-9.89797
粗	-9.89814
做的	-9.89872
拳	-9.89923
那就是	-9.89962
健	-9.89976
来源	-9.89991
早已	-9.9007
应对	-9.9008
一路	-9.90128
都不	-9.9019
▁【	-9.90193
忠	-9.90277
莲	-9.90344
清楚	-9.90422
观念	-9.90422
的位置	-9.90453
浪	-9.90515
2009	-9.90545
多年	-9.9055
般	-9.90594
勇	-9.906
品种	-9.90604
的想法	-9.90654
便是	-9.90656
争	-9.90687
穷	-9.90702
人群	-9.90754
得到了	-9.9092
希	-9.90933
邀请	-9.9107
测	-9.91093
院校	-9.91097
天天	-9.91164
实在	-9.91173
创建	-9.91173
海外	-9.91268
放松	-9.91281
航	-9.91287
苗	-9.91342
的结果	-9.91424
心态	-9.91434
日常	-9.91441
亭	-9.91455
沟	-9.91473
这类	-9.91473
枝	-9.91506
去做	-9.91509
参	-9.91527
看起来	-9.91635
学术	-9.91659
申	-9.91762
琴	-9.91769
泥	-9.91904
两次	-9.91961
灭	-9.91987
周围	-9.92042
治理	-9.92116
的历史	-9.92158
可见	-9.92162
的态度	-9.92207
跌	-9.92233
的新	-9.92234
从此	-9.92254
某些	-9.92263
超级	-9.92298
一件	-9.923
置	-9.92309
前往	-9.92329
公布	-9.92361
之所以	-9.92451
是由	-9.92484
扎	-9.92493
企业的	-9.92537
诗人	-9.92773
四个	-9.92826
秒	-9.92889
的效果	-9.92893
F	-9.92923
百度	-9.93042
艺	-9.9308
原本	-9.93114
盈利	-9.93259
小区	-9.93264
彼此	-9.93294
狼	-9.93416
击	-9.93435
前期	-9.93468
加速	-9.93469
青春	-9.9354
我会	-9.9354
事故	-9.93547
背后	-9.93574
一个月	-9.93631
另一方面	-9.93644
广场	-9.93662
锅	-9.93695
相同	-9.93718
就算	-9.9374
能源	-9.9378
湾	-9.93783
异常	-9.93854
循环	-9.93896
录	-9.94014
旺	-9.94018
天津	-9.94021
允许	-9.94041
带来的	-9.94088
更为	-9.9409
排名	-9.94166
把自己	-9.94238
批评	-9.94247
凯	-9.94286
地点	-9.94384
膜	-9.94419
浙江	-9.9444
当事人	-9.94456
地说	-9.94463
磨	-9.94528
胃	-9.94531
郎	-9.94549
微博	-9.94565
v	-9.94629
校长	-9.94669
乌	-9.9468
红色	-9.94689
变成了	-9.94763
险	-9.94895
骂	-9.94907
的目的	-9.94925
西安	-9.94928
人数	-9.94964
恨	-9.94997
基本上	-9.95019
孩子们	-9.95029
深度	-9.95079
国务院	-9.9508
壁	-9.95181
收获	-9.95181
基层	-9.95224
转移	-9.95254
▁1	-9.95255
己	-9.95257
高速	-9.9526
一致	-9.95322
辉	-9.9533
先进	-9.95347
晋	-9.95361
地址	-9.95377
各地	-9.9538
同学们	-9.9539
助	-9.95444
污染	-9.95448
联盟	-9.95488
优质	-9.95513
四川	-9.95514
这个时候	-9.95515
你会	-9.95602
东北	-9.95635
招生	-9.95644
肾	-9.95673
幼儿园	-9.95701
探	-9.9571
发展的	-9.95732
欢	-9.95773
即将	-9.95827
继	-9.95898
围	-9.95922
所在	-9.95936
年轻人	-9.9596
妙	-9.96043
子女	-9.96259
蛋	-9.96263
时刻	-9.96272
勒	-9.96287
资格	-9.96301
板块	-9.96361
学者	-9.96411
注重	-9.96494
本科	-9.96502
回去	-9.96529
依靠	-9.96544
的核心	-9.96574
通道	-9.96602
肝	-9.96679
描述	-9.96686
向上	-9.96688
旗	-9.96757
但在	-9.96797
申报	-9.96829
寻	-9.96908
对待	-9.96927
由此	-9.97006
通信	-9.97052
不太	-9.97099
上市公司	-9.97112
预计	-9.97116
相应的	-9.97122
是为了	-9.97268
锻炼	-9.97427
跨	-9.97519
巨大	-9.97569
没想到	-9.97587
面临	-9.9759
感动	-9.97597
显得	-9.97607
负	-9.97655
拟	-9.97705
曹	-9.97726
元素	-9.97727
也没	-9.97735
射	-9.97826
时尚	-9.97827
它是	-9.97848
依旧	-9.97874
官方	-9.97897
的目标	-9.9793
消	-9.97964
简单的	-9.97966
一把	-9.98042
矿	-9.98069
来的	-9.98124
擦	-9.98152
空气	-9.98177
杂	-9.98192
庙	-9.98214
大学生	-9.98263
竟	-9.98267
提示	-9.98321
两个人	-9.98409
购物	-9.98429
举行	-9.98533
消失	-9.98551
杭州	-9.9857
岭	-9.9859
佛教	-9.98619
角度	-9.98669
一句话	-9.98705
夹	-9.98728
检验	-9.98733
毛泽东	-9.9878
你就	-9.98792
预期	-9.98804
分布	-9.98844
楚	-9.98887
地面	-9.98931
相应	-9.98939
拼	-9.98954
逃	-9.98961
网友	-9.98966
饮食	-9.99003
蛇	-9.99125
抱	-9.99135
的基础上	-9.9917
纷纷	-9.99173
肺	-9.99201
共享	-9.99205
配套	-9.99212
停止	-9.99229
对自己	-9.9932
其次	-9.99376
淡	-9.99432
承诺	-9.99444
著	-9.99469
战斗	-9.99474
犯罪	-9.99486
接着	-9.99521
而在	-9.99568
举办	-9.99572
扬	-9.99611
嘛	-9.99772
亏损	-9.9979
出版社	-9.99834
本文	-9.9984
种植	-9.99845
老婆	-9.99853
姓	-9.99859
2007	-9.99968
看了	-10.0012
名称	-10.0013
萨	-10.0014
也很	-10.0017
29	-10.0017
芳	-10.0025
管道	-10.0025
试验	-10.0027
就这样	-10.0028
症状	-10.0029
估计	-10.0034
链	-10.0038
私	-10.0038
金属	-10.0039
输出	-10.0039
指挥	-10.0039
人民法院	-10.004
涂	-10.0042
当天	-10.0042
不大	-10.0043
工人	-10.0044
证书	-10.0046
甜	-10.0049
付	-10.0051
仓	-10.0052
一方面	-10.0054
金额	-10.0055
主任	-10.0057
掌	-10.0058
沉	-10.0058
生活中	-10.006
姐姐	-10.0068
信用	-10.0071
境	-10.0072
父	-10.0082
识别	-10.0083
预算	-10.0085
机器人	-10.0089
较为	-10.0092
完美	-10.0092
征	-10.0098
童	-10.0099
承	-10.0103
详细	-10.0106
同事	-10.0107
准	-10.0113
息	-10.0114
居然	-10.0115
汇	-10.0118
尖	-10.0121
记载	-10.0128
大陆	-10.0131
鸣	-10.0134
神经	-10.0137
心情	-10.0139
莱	-10.0139
O	-10.014
书法	-10.0146
世界上	-10.0146
范围内	-10.0148
包含	-10.0149
古代	-10.0152
肥	-10.0153
危险	-10.0154
生意	-10.0159
聊	-10.016
移	-10.017
出发	-10.017
进去	-10.017
力度	-10.0174
用来	-10.0181
孟	-10.0183
拿到	-10.0192
形成了	-10.0195
监测	-10.0197
迷	-10.0197
插	-10.0203
画面	-10.0204
残	-10.0204
拜	-10.0205
租	-10.0212
没有任何	-10.0214
近年来	-10.022
俊	-10.022
究竟	-10.0223
是我	-10.0226
纹	-10.0226
房间	-10.0232
怀疑	-10.0234
女子	-10.0235
顿	-10.0239
策划	-10.0241
后的	-10.0242
亚洲	-10.0245
闲	-10.0248
陶	-10.025
瘦	-10.0267
色彩	-10.0268
正确的	-10.0274
履行	-10.0279
每日	-10.0281
V	-10.0283
认证	-10.0284
为何	-10.0286
殿	-10.0288
本书	-10.0294
睡觉	-10.0296
打算	-10.0299
可以说	-10.0302
离婚	-10.0305
...	-10.0308
协助	-10.0311
报考	-10.0312
地下	-10.0314
反对	-10.0321
家族	-10.0324
清晰	-10.033
症	-10.0331
侯	-10.0331
和谐	-10.0341
敬	-10.0341
聊天	-10.0342
最为	-10.0346
回忆	-10.035
简	-10.035
划	-10.0351
毕业生	-10.0354
成为了	-10.0354
不错	-10.0355
公众号	-10.0365
积	-10.0369
小孩	-10.0373
谋	-10.0376
高端	-10.0382
麻烦	-10.0383
敌人	-10.0386
商家	-10.0386
他是	-10.039
买入	-10.0395
有利于	-10.0395
什么是	-10.0396
海洋	-10.0397
供应	-10.0399
消除	-10.0403
河南	-10.0404
主席	-10.0405
→	-10.0407
敏	-10.0407
一线	-10.0425
众生	-10.0426
输入	-10.0428
煤	-10.0428
当初	-10.0431
导	-10.0437
民主	-10.0442
杆	-10.0443
邪	-10.0448
巨	-10.0454
稿	-10.0454
炮	-10.0458
各位	-10.0466
相关的	-10.0467
每个人都	-10.0467
祥	-10.0474
戒	-10.0476
审批	-10.0476
演出	-10.0477
喷	-10.0481
能否	-10.0483
军队	-10.0488
纪	-10.0497
页	-10.0498
懂得	-10.0501
。3	-10.0508
武器	-10.0511
炎	-10.0511
的同学	-10.0514
务	-10.0515
怎么样	-10.0522
缺	-10.0528
泪	-10.0528
村民	-10.0529
尤其	-10.0531
大脑	-10.0532
一部	-10.0532
岗	-10.0541
装饰	-10.0542
反弹	-10.0547
省级	-10.0549
示范	-10.0554
代理	-10.0555
账户	-10.0563
十二	-10.0564
狂	-10.0565
天气	-10.057
服装	-10.0577
平安	-10.0579
不但	-10.0583
发生了	-10.0584
那时	-10.0588
寿	-10.0589
一部分	-10.059
宗教	-10.059
劳	-10.0598
辅助	-10.0598
败	-10.0601
现金	-10.0602
认知	-10.0616
警察	-10.0617
攻	-10.0619
并在	-10.0624
本次	-10.0628
婚	-10.0628
记住	-10.063
显然	-10.0631
的价格	-10.0634
在这	-10.0644
魂	-10.065
染	-10.0651
勤	-10.0652
一座	-10.0656
回复	-10.0656
围绕	-10.0659
35	-10.0659
肌肉	-10.0662
一道	-10.0662
看到了	-10.0674
提交	-10.0676
N	-10.0678
哪里	-10.0681
男孩	-10.0683
有限	-10.0687
r	-10.0687
病毒	-10.0689
准确	-10.0691
学历	-10.0693
仅仅	-10.0695
权利	-10.0697
美好	-10.0701
毫无	-10.0712
慧	-10.0713
把它	-10.0714
部位	-10.0718
题目	-10.0719
素质	-10.0724
空调	-10.0733
室内	-10.0736
喊	-10.0736
论文	-10.0739
加大	-10.074
够	-10.0748
中华人民	-10.0752
表明	-10.0753
可以在	-10.0755
餐厅	-10.0757
润	-10.0758
金钱	-10.0762
我认为	-10.0767
超越	-10.0768
补贴	-10.0768
相反	-10.0774
砖	-10.0786
湖南	-10.0786
不一样	-10.0787
识	-10.079
甘	-10.0791
动态	-10.0792
机器	-10.0792
信任	-10.0794
创意	-10.0797
餐	-10.0799
感染	-10.0802
焦虑	-10.0809
偷	-10.0809
短期	-10.0814
孝	-10.0816
不懂	-10.0818
拓展	-10.0818
辛	-10.0822
31	-10.0823
维修	-10.0824
屏	-10.0826
禁	-10.0831
暖	-10.0832
惊	-10.0832
搭配	-10.0832
予以	-10.0838
甚	-10.0839
前后	-10.0839
的精神	-10.0843
有一天	-10.0847
便宜	-10.0855
为此	-10.0856
我们要	-10.0856
步骤	-10.0858
名字	-10.0863
实验室	-10.0864
成功的	-10.0867
玛	-10.0869
作战	-10.0873
人工智能	-10.0876
害	-10.0877
聪明	-10.0879
墓	-10.0881
测量	-10.0886
有一种	-10.0889
尊	-10.089
委托	-10.089
五年	-10.0896
巧	-10.0902
头发	-10.0903
恒	-10.0904
足够	-10.0909
蔬菜	-10.0912
承认	-10.0912
汗	-10.0913
持有	-10.0922
爆发	-10.0925
较大	-10.093
装置	-10.0938
夫妻	-10.0945
同志	-10.0949
线路	-10.0951
获得了	-10.0954
乙	-10.0955
W	-10.0957
难度	-10.0957
原理	-10.0966
宏	-10.097
的确	-10.0978
堆	-10.0982
临床	-10.0984
过度	-10.0992
那天	-10.0998
差不多	-10.0998
一直在	-10.1001
淘宝	-10.1002
设计师	-10.1002
森林	-10.1005
让他们	-10.1009
R	-10.1012
要想	-10.1014
论坛	-10.1015
隔	-10.1022
的基本	-10.1028
警	-10.1029
锦	-10.1032
走进	-10.1035
’	-10.1036
的信息	-10.1037
哥哥	-10.104
很好的	-10.1041
家具	-10.1042
导师	-10.1043
亲自	-10.1059
斜	-10.1061
队伍	-10.1067
没有什么	-10.1069
因而	-10.1073
两年	-10.1076
如果是	-10.1076
输	-10.1078
人间	-10.108
走势	-10.1081
另	-10.1084
同时也	-10.1084
证据	-10.1087
每个人	-10.1088
高效	-10.1089
告诉我	-10.109
航空	-10.1093
司机	-10.1097
这时候	-10.1098
延	-10.1104
叫做	-10.1105
难道	-10.1108
审计	-10.1108
设定	-10.1111
传统的	-10.112
乔	-10.112
逆	-10.1125
保存	-10.1131
振	-10.1132
主持	-10.1132
的价值	-10.1134
小米	-10.1136
禁止	-10.1143
的钱	-10.1145
范	-10.1152
流行	-10.1154
2006	-10.1156
授权	-10.1161
的企业	-10.1163
冠	-10.1163
姆	-10.1165
对手	-10.1165
差异	-10.1167
市场的	-10.1168
怎么办	-10.117
什么时候	-10.1172
适用	-10.1181
这件事	-10.1184
产品的	-10.1191
将军	-10.1195
备	-10.1195
的状态	-10.1195
三大	-10.1201
早期	-10.1205
我们在	-10.1207
爆	-10.1207
不必	-10.1208
信心	-10.1212
线下	-10.1223
一本	-10.1231
一定会	-10.1236
刑	-10.1236
障碍	-10.1246
搭	-10.1253
休	-10.1256
小组	-10.1259
最多	-10.126
今日	-10.1272
震	-10.1273
驻	-10.1277
告	-10.1281
查询	-10.129
审查	-10.1293
人力资源	-10.1294
更好	-10.1297
随时	-10.1305
凭	-10.1309
权力	-10.1309
窗	-10.131
晨	-10.1311
一批	-10.1311
距	-10.1314
渐渐	-10.1319
胸	-10.1319
地铁	-10.1319
一颗	-10.1322
近期	-10.1324
华为	-10.1326
济	-10.1326
浩	-10.1332
临时	-10.1332
姐	-10.1342
之处	-10.135
昨天	-10.1351
公告	-10.1354
疼	-10.1356
批	-10.1357
消耗	-10.1358
请求	-10.1359
▁-	-10.136
抓住	-10.1362
起了	-10.1371
资	-10.1372
温暖	-10.1374
上课	-10.1376
吊	-10.1376
住房	-10.138
落地	-10.1382
强大的	-10.1387
币	-10.1389
发动机	-10.1392
图书馆	-10.1393
定期	-10.1397
生活的	-10.1397
暂时	-10.1404
良好	-10.1404
层面	-10.1405
上班	-10.1406
透	-10.1409
大会	-10.1414
累计	-10.1414
激励	-10.1425
周边	-10.1425
宣	-10.1431
档	-10.1435
休闲	-10.1438
留学	-10.1438
无限	-10.1444
壳	-10.1444
免	-10.1446
让她	-10.1448
事业单位	-10.1449
优秀的	-10.1453
诚	-10.1459
居住	-10.1463
碎	-10.1465
别人的	-10.1466
邦	-10.147
实习	-10.1472
给大家	-10.1477
不喜欢	-10.1479
初中	-10.148
专业的	-10.1482
过于	-10.1484
你是	-10.1484
在美国	-10.1491
释放	-10.1496
劝	-10.1501
咱们	-10.1505
大量的	-10.1513
意大利	-10.1516
公主	-10.1516
模拟	-10.152
股权	-10.152
唯	-10.1527
将其	-10.1527
算是	-10.1528
现有	-10.1529
卢	-10.1537
盆	-10.1539
路线	-10.154
浓	-10.154
时光	-10.1542
益	-10.155
始	-10.1558
不行	-10.1562
历	-10.1563
吾	-10.1566
中华	-10.157
傻	-10.1571
拖	-10.1573
宅	-10.1581
学员	-10.1581
要有	-10.1581
撒	-10.1591
取消	-10.1597
一人	-10.1598
隐	-10.1602
这是一个	-10.1603
i	-10.1607
依赖	-10.1607
滴	-10.161
义务	-10.1611
拔	-10.1615
总统	-10.1616
我自己	-10.1617
的表现	-10.162
收藏	-10.162
填	-10.1623
影片	-10.1624
想法	-10.1625
的名字	-10.1628
冠军	-10.1631
汁	-10.1637
事项	-10.1639
咖啡	-10.1642
走到	-10.1652
心灵	-10.1655
闹	-10.1657
和平	-10.1661
早上	-10.1668
层次	-10.1671
仔细	-10.1675
立刻	-10.1676
全身	-10.1679
万人	-10.168
江苏	-10.1682
硕士	-10.1683
社交	-10.1683
瞬间	-10.1687
的基础	-10.1687
总之	-10.1691
选择了	-10.1698
客观	-10.1698
即便	-10.1705
人工	-10.1707
融	-10.1708
引进	-10.171
味道	-10.1714
鉴定	-10.1722
这句话	-10.1732
桑	-10.1735
办公	-10.174
肌	-10.1742
大数据	-10.1749
我们可以	-10.175
无人	-10.1751
死了	-10.1755
南方	-10.1756
编制	-10.1757
主张	-10.1758
夏天	-10.1758
不出	-10.1761
适当	-10.1764
胶	-10.1768
赤	-10.1776
全省	-10.1777
腹	-10.1778
U	-10.1781
如同	-10.1785
清洁	-10.1786
回收	-10.1787
鼻	-10.1789
手续	-10.1797
丑	-10.1798
某个	-10.18
各自	-10.1801
的形式	-10.1804
皇	-10.1805
胜利	-10.1808
多数	-10.181
美术	-10.1812
此前	-10.1815
=	-10.1817
烦恼	-10.1817
主管部门	-10.1819
冯	-10.1819
启	-10.1822
这个世界	-10.1823
诊断	-10.1828
烂	-10.1831
改进	-10.1831
体会	-10.1842
一半	-10.1843
我知道	-10.1843
召开	-10.1843
豆	-10.1846
和其他	-10.1846
已有	-10.1848
炉	-10.185
眉	-10.1851
认可	-10.1854
飘	-10.1854
醉	-10.1854
菲	-10.1859
第五	-10.1863
);	-10.1871
啥	-10.1871
颜	-10.1872
完整	-10.1873
出生	-10.1876
想象	-10.1876
方面的	-10.1879
一项	-10.1879
乃至	-10.1897
中有	-10.19
影视	-10.1901
玄	-10.1906
开启	-10.1908
的日子	-10.1913
单独	-10.1913
检	-10.1914
互	-10.1918
的选择	-10.1926
语文	-10.1928
漏	-10.1929
贷	-10.1932
回报	-10.1932
之路	-10.1934
格局	-10.1936
丰富的	-10.1939
恋爱	-10.1942
饮	-10.195
药品	-10.1951
造型	-10.1952
收费	-10.1955
热情	-10.1956
没什么	-10.1956
商务	-10.1957
炸	-10.196
上帝	-10.1966
的意义	-10.1967
地产	-10.1976
动画	-10.1977
译	-10.198
就开始	-10.1986
每一	-10.1988
2005	-10.1989
又有	-10.1989
冬天	-10.1991
拿着	-10.1997
鸡蛋	-10.1997
董事长	-10.2007
心理学	-10.201
门口	-10.2014
可以通过	-10.2019
的心	-10.202
其实是	-10.2023
京东	-10.2025
冲突	-10.2027
减肥	-10.2032
大多	-10.2036
袋	-10.2038
别的	-10.2049
沿	-10.205
一定是	-10.2055
业主	-10.2058
稍	-10.2064
真的是	-10.2066
反馈	-10.2066
混合	-10.2074
保留	-10.2076
统	-10.2081
挖	-10.2083
修行	-10.2086
有些人	-10.2091
白色	-10.2091
对外	-10.2093
大约	-10.2095
辞	-10.2098
来讲	-10.2098
等方面	-10.21
工作的	-10.2102
电力	-10.2106
意识到	-10.211
零售	-10.2114
在一个	-10.2116
同一	-10.212
娜	-10.212
一辈子	-10.2123
市民	-10.2125
维生素	-10.2129
熊	-10.2131
水果	-10.2132
预	-10.2137
羽	-10.2139
偶尔	-10.214
要素	-10.2144
是以	-10.2147
有哪些	-10.2158
吐	-10.2164
御	-10.2165
出门	-10.2167
响	-10.2168
天地	-10.2168
西北	-10.2171
‘	-10.2171
云南	-10.2172
打电话	-10.2178
行业的	-10.2179
饰	-10.2179
蔡	-10.218
因为我	-10.2181
年前	-10.2183
试图	-10.2184
患	-10.2188
物品	-10.2194
塘	-10.2198
清洗	-10.2199
放下	-10.2199
流通	-10.2201
实现了	-10.2203
贾	-10.2204
笔者	-10.2208
委员	-10.2209
百姓	-10.221
住宅	-10.2211
出现在	-10.2211
码	-10.2214
驾驶	-10.2215
个体	-10.2217
北京市	-10.2217
原料	-10.2222
供应商	-10.2223
问我	-10.2224
新疆	-10.2224
事物	-10.2227
阿里	-10.2228
亩	-10.223
赢	-10.2235
脸上	-10.2237
的学习	-10.2241
寄	-10.2246
了一下	-10.2247
是中国	-10.2249
盒	-10.2252
镜头	-10.2253
感受到	-10.2254
经理	-10.2256
英文	-10.2263
疼痛	-10.2263
洲	-10.2272
争取	-10.2273
抱怨	-10.2277
粒	-10.228
只会	-10.2281
45	-10.2282
利率	-10.2288
的规定	-10.2291
债	-10.2295
见面	-10.2298
一声	-10.2299
开了	-10.2302
吕	-10.2308
天然	-10.2309
想着	-10.2314
遂	-10.2315
的原则	-10.2316
足球	-10.2318
缴纳	-10.2319
竞争力	-10.2322
吃了	-10.2328
档案	-10.2331
演讲	-10.2338
税收	-10.2341
孤独	-10.2341
球队	-10.2342
一定的	-10.2344
美丽的	-10.2347
组织实施	-10.2353
写的	-10.2353
文艺	-10.2353
稳	-10.2357
二十	-10.2362
监督管理	-10.2362
睡眠	-10.2365
姑娘	-10.2374
流动	-10.2374
下载	-10.2376
自主	-10.2376
杂志	-10.2377
迁	-10.2378
某种	-10.238
基础设施	-10.2382
说过	-10.239
是谁	-10.2394
当下	-10.2396
美食	-10.2396
肠	-10.2397
超市	-10.24
成分	-10.2402
忘记	-10.2403
带动	-10.2421
遭遇	-10.2429
给我们	-10.2432
走出	-10.2433
提到	-10.2434
命运	-10.2435
柜	-10.2435
退出	-10.2437
强大	-10.2444
引发	-10.2447
专利	-10.2447
也不能	-10.245
出行	-10.245
签	-10.2452
穿着	-10.2455
话题	-10.2458
经济发展	-10.2461
赔偿	-10.2465
菩萨	-10.2466
要是	-10.2467
模	-10.2468
经济学	-10.2473
著名的	-10.2477
优先	-10.2484
400	-10.2486
矣	-10.2492
调研	-10.2497
带领	-10.25
一周	-10.2501
回归	-10.2502
很大的	-10.2505
转让	-10.2505
撞	-10.2508
一篇	-10.2509
最低	-10.2514
精准	-10.2521
提出了	-10.2523
阵	-10.2526
房价	-10.2528
都没	-10.2531
传递	-10.2536
▁中国	-10.2536
脂肪	-10.2539
大盘	-10.254
违反	-10.2542
定义	-10.2542
的特点	-10.2543
扩张	-10.2545
货物	-10.2546
级别	-10.2549
胎	-10.255
坡	-10.2558
固	-10.256
理财	-10.2564
分子	-10.2565
做事	-10.2567
叔	-10.2573
解读	-10.2574
饼	-10.2585
版本	-10.2586
粮	-10.2586
地震	-10.259
萧	-10.2594
更有	-10.2598
销量	-10.2598
有效的	-10.2608
听说	-10.2611
过的	-10.2611
四大	-10.2613
焦	-10.2614
赴	-10.2616
一方	-10.2628
外国	-10.2629
渡	-10.263
的作品	-10.2632
垂	-10.2635
蒂	-10.2639
缓解	-10.2641
被称为	-10.2645
高兴	-10.2648
不然	-10.2658
那时候	-10.2658
解决方案	-10.266
恐惧	-10.2661
热爱	-10.267
▁第二百	-10.2673
拆	-10.2674
要么	-10.2679
但我	-10.2682
链接	-10.2684
电池	-10.2687
帝国	-10.269
尚未	-10.2693
支出	-10.2698
想起	-10.2699
碗	-10.2701
一支	-10.2709
对你	-10.271
分离	-10.2713
部署	-10.2716
z	-10.2719
不住	-10.2722
辰	-10.2724
千万	-10.2724
废	-10.273
威胁	-10.273
的数据	-10.2733
等到	-10.2738
查看	-10.2741
骑	-10.2743
给了	-10.2743
养生	-10.2744
司法	-10.2745
咬	-10.2747
研究所	-10.2748
电子商务	-10.2749
精彩	-10.2749
诗歌	-10.2752
清理	-10.2755
驱动	-10.2758
管理工作	-10.2758
很简单	-10.2759
更高	-10.276
访问	-10.2762
孤	-10.2766
变更	-10.2767
X	-10.277
的经验	-10.2774
一时	-10.2776
要注意	-10.2778
故意	-10.2781
约定	-10.2782
亏	-10.2782
中文	-10.279
公益	-10.279
庭	-10.2793
更大	-10.2794
但他	-10.2796
娘	-10.2798
男生	-10.2799
合并	-10.2799
研	-10.2802
的意思	-10.2802
在北京	-10.2803
不久	-10.2806
多么	-10.2808
乡村	-10.281
担保	-10.2817
肩	-10.2817
双手	-10.2817
亿美元	-10.282
的人生	-10.2821
席	-10.2821
第二次	-10.2821
活力	-10.2821
赶	-10.2826
荣誉	-10.2829
半年	-10.2831
店铺	-10.2833
男女	-10.2833
转变	-10.2834
奉	-10.2837
面向	-10.2842
尘	-10.2844
监控	-10.2845
怒	-10.2846
暴	-10.2847
效	-10.285
地图	-10.2859
第二个	-10.2867
对话	-10.2869
忍	-10.2874
债务	-10.2877
旅	-10.2878
相当于	-10.2882
得知	-10.2887
随便	-10.2889
一级	-10.2893
误	-10.2894
序	-10.2896
各项	-10.2898
深刻	-10.29
霜	-10.2903
场所	-10.2903
滚	-10.2906
生气	-10.2907
的知识	-10.291
北方	-10.2912
的设计	-10.2915
觉得自己	-10.2917
这就	-10.2921
境内	-10.2921
她说	-10.2923
发放	-10.2926
外部	-10.2926
传承	-10.2929
关键词	-10.2938
豪	-10.2943
领域的	-10.2946
app	-10.2949
男子	-10.2949
被人	-10.2951
黑色	-10.2952
陷入	-10.2954
忽然	-10.2955
据说	-10.2956
秘密	-10.2956
房产	-10.2957
无数	-10.2958
骗	-10.2959
这两个	-10.2962
漂亮	-10.2971
添加	-10.2974
做法	-10.2975
途径	-10.2977
文物	-10.2977
一层	-10.298
公众	-10.2982
董	-10.2983
20%	-10.2983
企	-10.2986
医药	-10.2986
优惠	-10.2986
框架	-10.2987
雾	-10.2988
一步	-10.2993
待遇	-10.2993
於	-10.2994
食用	-10.2999
初期	-10.2999
俱乐部	-10.2999
前进	-10.3004
说的	-10.301
订单	-10.3013
就不	-10.3013
灵活	-10.3014
袁	-10.3015
很重要	-10.302
给孩子	-10.302
找到了	-10.302
完成了	-10.3021
购	-10.3022
有人说	-10.3023
最新	-10.3027
解决问题	-10.3031
[	-10.3034
～	-10.3035
建成	-10.3047
顾问	-10.3048
遗	-10.3059
浪费	-10.306
肌肤	-10.3063
师傅	-10.3063
的思想	-10.3067
育	-10.3069
分数	-10.3076
展现	-10.3078
标志	-10.3079
心脏	-10.3084
或者是	-10.3084
10%	-10.3086
猛	-10.3088
花园	-10.3089
都很	-10.3094
工程师	-10.3098
高于	-10.3099
很有	-10.3107
公务员	-10.311
阁	-10.3118
低于	-10.3118
能不能	-10.3119
|	-10.3122
的一些	-10.3123
作为一个	-10.3135
区别	-10.3135
增值税	-10.3136
以上的	-10.3138
算法	-10.3138
扑	-10.3139
培育	-10.3146
是我们	-10.3148
显著	-10.3151
按摩	-10.3153
禅	-10.3154
不愿意	-10.3157
自行	-10.3157
血管	-10.3157
棉	-10.3162
的女人	-10.3165
市政府	-10.3167
筋	-10.3167
大赛	-10.3177
成交量	-10.3181
彭	-10.3186
有可能	-10.3187
波动	-10.319
宿	-10.3192
韵	-10.3192
涛	-10.3193
的方向	-10.3196
交换	-10.3198
手中	-10.3199
一根	-10.3199
景观	-10.3203
几年	-10.3205
移民	-10.3208
新增	-10.3212
女士	-10.3215
的世界	-10.3218
自治区	-10.322
律	-10.3226
认	-10.3227
转换	-10.3227
的关键	-10.3228
佩	-10.3229
强烈	-10.3231
销	-10.3231
得以	-10.3236
如果没有	-10.3238
。4	-10.3242
肖	-10.3242
蒸	-10.3244
扫	-10.3254
简介	-10.326
碧	-10.3265
参观	-10.3267
护理	-10.3268
底部	-10.3271
不多	-10.3272
蒋	-10.3273
体检	-10.3275
贺	-10.3275
斑	-10.3278
尿	-10.3278
舞蹈	-10.3278
进来	-10.328
不断地	-10.3283
抱着	-10.3287
岁月	-10.3287
系统的	-10.3288
减轻	-10.3291
节奏	-10.3292
绘画	-10.3294
周末	-10.3295
式的	-10.3299
桂	-10.3301
凭借	-10.3302
纳入	-10.3302
愁	-10.3307
正如	-10.3307
诚信	-10.3308
基因	-10.3312
比如说	-10.3312
为什么要	-10.3313
小姐	-10.3316
朗	-10.3321
他就	-10.3322
道理	-10.3324
球员	-10.3329
牺牲	-10.3329
规定的	-10.3332
窝	-10.3333
世间	-10.3335
历史上	-10.3335
妈	-10.3337
第一百	-10.3338
荒	-10.3343
不怕	-10.3347
非法	-10.3348
郡	-10.3352
拿出	-10.3353
更换	-10.3354
账	-10.3357
权威	-10.3358
艳	-10.3359
全世界	-10.3361
给她	-10.3365
册	-10.3366
损害	-10.337
达成	-10.3372
为你	-10.3374
高达	-10.3374
态	-10.3377
在家	-10.3378
的男人	-10.3379
风景	-10.3381
的概念	-10.3383
之时	-10.3386
忘	-10.3387
缩	-10.3388
运作	-10.3389
承受	-10.3391
舒	-10.3395
下的	-10.3399
凶	-10.3405
你自己	-10.3408
路上	-10.3409
宿舍	-10.3412
独特的	-10.3412
鹿	-10.3416
闭	-10.3417
粮食	-10.3418
青岛	-10.3419
因为他	-10.3421
赫	-10.3425
当时的	-10.3425
灾	-10.3427
同步	-10.3428
赌	-10.3429
2004	-10.343
的现象	-10.343
正面	-10.3432
伏	-10.3437
石油	-10.3439
以外	-10.344
为例	-10.3446
的研究	-10.3447
赞	-10.3448
亡	-10.3448
参数	-10.3452
抛	-10.3455
有关部门	-10.3456
错了	-10.3468
学生的	-10.3468
园区	-10.3478
年底	-10.348
之上	-10.3483
跟我	-10.3486
随意	-10.3487
丙	-10.3491
不论	-10.3493
复制	-10.3496
消防	-10.3498
产生了	-10.3502
很高	-10.3503
江南	-10.3506
发现了	-10.3508
呼	-10.3509
成交	-10.3509
山西	-10.3512
大道	-10.3513
适用于	-10.3514
另一	-10.3514
鸿	-10.3515
原创	-10.3516
本地	-10.3516
奋斗	-10.3517
最初	-10.3517
的文章	-10.3517
远离	-10.3518
各大	-10.3518
愈	-10.3519
科学家	-10.352
负担	-10.3522
西南	-10.3525
未来的	-10.3528
一开始	-10.3536
是非常	-10.3536
青少年	-10.3542
劫	-10.3544
挤	-10.3549
湖北	-10.3551
等人	-10.3551
在哪里	-10.3553
可以看到	-10.3554
不仅仅是	-10.3555
棒	-10.3557
总经理	-10.3559
一看	-10.3561
几天	-10.3563
加以	-10.3564
失去了	-10.3565
个股	-10.3566
眼前	-10.3567
日子	-10.3571
微笑	-10.3572
邓	-10.3574
的观点	-10.3574
敏感	-10.3577
疏	-10.3582
不超过	-10.3582
进攻	-10.3584
这本书	-10.3586
不管是	-10.3586
引领	-10.359
卖出	-10.3591
说了	-10.3591
教室	-10.3592
人文	-10.3595
mm	-10.3599
.	-10.36
桃	-10.3604
柏	-10.3608
所以我	-10.361
钻	-10.3611
也可	-10.3611
公民	-10.3612
故障	-10.3613
产量	-10.3613
妻	-10.3617
旁边	-10.3618
放心	-10.3618
兴奋	-10.3619
爬	-10.3629
赶紧	-10.3629
缝	-10.3629
不去	-10.363
会不会	-10.3631
遵守	-10.3631
只好	-10.3632
客人	-10.3635
卧	-10.3637
无奈	-10.3638
验证	-10.364
感恩	-10.3641
试点	-10.3642
补偿	-10.3644
进了	-10.3646
吨	-10.3647
您的	-10.3657
长江	-10.3657
共有	-10.3666
主管	-10.3667
是有	-10.3668
陪	-10.3678
再加上	-10.3678
中药	-10.3678
想想	-10.3679
假如	-10.3679
垫	-10.3684
活跃	-10.3688
总体	-10.3691
摸	-10.3691
乎	-10.3698
胖	-10.3699
哪怕	-10.3704
厨房	-10.3708
三十	-10.3708
买卖	-10.3714
耐心	-10.3719
会出现	-10.3724
善于	-10.3725
借助	-10.3725
小编	-10.3728
有助于	-10.3731
后悔	-10.3732
了吗	-10.3735
受伤	-10.3737
爱心	-10.3743
播	-10.3744
标题	-10.3748
氛围	-10.375
q	-10.3754
最早	-10.3758
回头	-10.3761
签订	-10.3763
可惜	-10.3763
人事	-10.3763
占比	-10.3773
的存在	-10.3774
不良	-10.3775
大人	-10.3778
爷爷	-10.378
苏联	-10.3781
寨	-10.3783
这条	-10.3792
结论	-10.3793
材	-10.3794
五个	-10.3794
早就	-10.3795
j	-10.3802
摩	-10.3819
取得了	-10.3819
烤	-10.3821
带来了	-10.3826
信息化	-10.3827
手里	-10.3829
3000	-10.3831
尺	-10.3833
探讨	-10.3834
域	-10.3839
。5	-10.3841
为自己	-10.3844
胆	-10.3846
种子	-10.3846
代码	-10.3847
*	-10.3851
悦	-10.3852
夫人	-10.3853
壮	-10.3861
一款	-10.3862
精英	-10.3864
接到	-10.3865
老百姓	-10.3867
视觉	-10.3868
询问	-10.3868
欠	-10.3874
摇	-10.3877
帅	-10.3877
事务	-10.3879
湘	-10.3883
解除	-10.3884
这也	-10.3888
逢	-10.389
妇女	-10.3896
印象	-10.3896
极其	-10.3903
职务	-10.3905
违法	-10.3905
绕	-10.3905
操	-10.3907
期限	-10.3911
餐饮	-10.3911
5000	-10.3916
犬	-10.3916
会在	-10.3918
人心	-10.3919
弃	-10.3922
境界	-10.3929
坛	-10.3932
制造业	-10.3934
透露	-10.3934
局部	-10.3935
拨	-10.3935
审	-10.3944
车型	-10.3946
形势	-10.3952
这份	-10.3952
灵魂	-10.3954
每月	-10.3955
霞	-10.3961
回应	-10.3961
当代	-10.3962
河北	-10.3964
名单	-10.3965
图像	-10.3968
也好	-10.3975
我们就	-10.3976
纠纷	-10.3978
选手	-10.3978
找不到	-10.3982
势力	-10.3983
官员	-10.3987
并未	-10.399
挖掘	-10.3992
认同	-10.3997
霍	-10.3998
的心态	-10.3998
对我	-10.4001
建立了	-10.4007
电视剧	-10.4009
说道	-10.4012
损	-10.4013
较高	-10.4015
2003	-10.4021
讲解	-10.4021
这种情况	-10.4024
辛苦	-10.4025
幼	-10.4031
臂	-10.4037
对应	-10.4038
珍惜	-10.4039
遭	-10.404
幽	-10.4042
我都	-10.4046
耐	-10.4047
厘米	-10.4055
般的	-10.4055
不在	-10.406
纵	-10.4062
柔	-10.4062
经费	-10.4065
聚集	-10.4066
天空	-10.4071
春天	-10.4077
生命的	-10.4077
斤	-10.4078
外界	-10.4087
反正	-10.4088
研究院	-10.4091
国内外	-10.4092
满意	-10.4095
36	-10.4096
交给	-10.4096
强度	-10.4103
唯一的	-10.4103
干扰	-10.4108
幅	-10.4114
帮忙	-10.4118
在我	-10.4118
珍	-10.4118
实体	-10.412
有一次	-10.4121
采访	-10.4122
相处	-10.4124
锋	-10.4126
志愿者	-10.4126
剪	-10.4131
的情绪	-10.4132
下了	-10.4133
刚才	-10.4138
转化	-10.4139
个小时	-10.4139
谱	-10.4145
区块链	-10.4149
宝贝	-10.4152
上去	-10.4152
一面	-10.4153
外面	-10.4164
芯片	-10.4169
地理	-10.4169
法规	-10.4171
农产品	-10.4174
增加了	-10.4175
做一个	-10.4176
进而	-10.4179
体内	-10.418
二次	-10.4181
大于	-10.4182
介入	-10.4186
图书	-10.4186
处罚	-10.4187
出售	-10.4188
均线	-10.4191
Q	-10.4192
剧情	-10.4192
尽快	-10.4193
的责任	-10.4202
这样一个	-10.4204
继承	-10.4207
光明	-10.4214
春节	-10.4215
你看	-10.4217
景点	-10.4218
职责	-10.4223
非常重要	-10.4224
书籍	-10.4225
告诉你	-10.4226
_	-10.4227
上学	-10.4228
相似	-10.4228
福利	-10.4233
替	-10.4235
50%	-10.4235
飞行	-10.4237
去看	-10.4242
寻求	-10.4245
正好	-10.425
教育部	-10.4253
消化	-10.4253
执法	-10.4257
从小	-10.426
常规	-10.4261
那么多	-10.4264
有机会	-10.4268
物资	-10.4271
广西	-10.4272
欣	-10.4275
就没有	-10.4283
渴望	-10.4286
不容易	-10.4286
返回	-10.4292
终端	-10.4295
气候	-10.4296
的优势	-10.4297
向前	-10.4301
莉	-10.4303
可以用	-10.4311
保险公司	-10.4311
企业家	-10.4313
不愿	-10.4314
生成	-10.4316
分手	-10.4317
腾	-10.4317
纪念	-10.4319
创始人	-10.4322
第六	-10.4328
冲击	-10.4328
我还	-10.4329
避	-10.433
专用	-10.433
赏	-10.433
与其	-10.4331
舌	-10.4331
有多	-10.4331
阴阳	-10.4334
J	-10.4335
精力	-10.4338
民众	-10.4338
每周	-10.4339
赖	-10.4339
晴	-10.4351
像是	-10.4351
嫁	-10.4353
失望	-10.4355
知名	-10.4356
科目	-10.4356
实用	-10.4357
新型	-10.4359
有一些	-10.436
提问	-10.4361
一阵	-10.4362
活着	-10.4363
讲究	-10.4364
供应链	-10.4369
罐	-10.4378
此后	-10.4384
全体	-10.4385
辐射	-10.4386
的股票	-10.4386
塑料	-10.4391
团体	-10.4393
特定	-10.4394
之地	-10.4398
都知道	-10.4399
鹏	-10.4401
的时代	-10.4401
僧	-10.4407
发射	-10.4408
所说的	-10.4411
看似	-10.4418
四年	-10.4426
秩序	-10.4427
不见	-10.4434
的标准	-10.4441
干净	-10.4442
返	-10.4447
把我	-10.4447
租赁	-10.4453
转向	-10.4459
售	-10.446
没人	-10.446
疯狂	-10.4464
妹妹	-10.4466
祝福	-10.4468
第三方	-10.4471
弦	-10.4475
十八	-10.4476
籍	-10.4477
哲	-10.4478
岸	-10.4478
弟弟	-10.4478
备案	-10.4482
极为	-10.4482
从未	-10.4483
是最	-10.4483
俗	-10.4484
得多	-10.4486
到现在	-10.4488
的所有	-10.4488
辣	-10.4494
爽	-10.4494
当我们	-10.4499
职场	-10.45
经历了	-10.4502
数据库	-10.4502
签证	-10.4505
县城	-10.4507
解放	-10.4507
要把	-10.4509
是从	-10.4509
时代的	-10.451
坚定	-10.4511
快递	-10.4512
合格	-10.4513
今天的	-10.4515
说到	-10.4516
鼎	-10.4516
班级	-10.4516
单元	-10.4517
原始	-10.4519
放大	-10.4521
这款	-10.4521
遗憾	-10.4525
早在	-10.4527
加拿大	-10.4536
卫星	-10.4537
你说	-10.4538
的一切	-10.4542
帖	-10.4543
夺	-10.4549
有机	-10.4551
看过	-10.4552
艺术家	-10.4553
指定	-10.4553
舟	-10.4556
兽	-10.4557
碑	-10.456
岳	-10.4561
悲	-10.4563
妖	-10.4572
栏	-10.4575
鸭	-10.4576
缺少	-10.4577
争议	-10.4579
真题	-10.4581
诉讼	-10.4585
就把	-10.4588
服用	-10.459
一点点	-10.459
凌	-10.4593
中午	-10.4596
短信	-10.4597
同行	-10.4597
养老	-10.4598
丸	-10.4599
难题	-10.4599
产业链	-10.4602
目录	-10.4604
视为	-10.4606
的风险	-10.4607
交往	-10.461
养成	-10.4612
潘	-10.4612
健身	-10.4614
不宜	-10.4616
对抗	-10.4616
一群	-10.4619
伴	-10.4625
几次	-10.4631
真实的	-10.4632
上午	-10.4636
二人	-10.4637
团结	-10.464
真相	-10.4642
今后	-10.4643
陕西	-10.4645
结束后	-10.4645
必须要	-10.4648
两位	-10.465
在国内	-10.4652
忌	-10.4656
醋	-10.4659
假设	-10.466
一遍	-10.466
的功能	-10.466
帕	-10.466
合法	-10.4662
磁	-10.4664
不易	-10.4664
醒	-10.4666
可以说是	-10.4669
砸	-10.4669
这段	-10.4672
时机	-10.4679
800	-10.4681
一笔	-10.4681
藤	-10.4682
条款	-10.4684
抹	-10.4685
。”“	-10.4685
限	-10.4689
竞赛	-10.4691
关联	-10.4692
摊	-10.4692
弟子	-10.4694
观看	-10.4694
做过	-10.4695
这样做	-10.4695
冻	-10.4696
自动化	-10.4697
没有人	-10.4697
辅导	-10.47
碰	-10.4701
菌	-10.4702
百年	-10.4702
恐怕	-10.4703
陪伴	-10.4704
600	-10.4708
反思	-10.471
用了	-10.471
石头	-10.4712
等地	-10.4712
汪	-10.4713
礼物	-10.4714
抄	-10.4715
▁3	-10.4717
全程	-10.4726
打工	-10.4728
议	-10.4729
仪式	-10.473
小镇	-10.473
布置	-10.4735
关闭	-10.4735
疑	-10.4735
万物	-10.4736
更好地	-10.4736
朝鲜	-10.4736
更大的	-10.4736
十三	-10.4739
幸运	-10.4739
的速度	-10.4741
通讯	-10.4745
法则	-10.4745
单词	-10.4747
尺寸	-10.475
出台	-10.4751
防治	-10.4753
诉	-10.4754
水泥	-10.4755
嫩	-10.476
人生的	-10.4761
执	-10.4764
的习惯	-10.4764
高手	-10.4769
后续	-10.477
初步	-10.4772
新鲜	-10.4774
抑制	-10.4776
坚决	-10.4781
”“	-10.4783
平等	-10.4786
了吧	-10.4787
的生命	-10.4788
描写	-10.4788
起到	-10.4789
可爱	-10.479
广东省	-10.4798
晶	-10.4799
价值观	-10.48
渣	-10.4802
太大	-10.481
小时候	-10.4815
达到了	-10.4817
头部	-10.4819
传说	-10.4819
弯	-10.482
爷	-10.482
厂商	-10.4822
▁2	-10.4822
厂家	-10.4824
30%	-10.4824
延长	-10.483
扶贫	-10.4834
风水	-10.4835
砂	-10.4835
当我	-10.4835
肯	-10.4842
温柔	-10.4849
产生的	-10.4851
奔	-10.4852
扶	-10.4859
舞台	-10.486
专项	-10.486
主流	-10.4862
神秘	-10.4862
乐观	-10.4862
I	-10.4866
改革开放	-10.4871
茶叶	-10.4873
规	-10.4874
癌症	-10.4876
的各种	-10.4876
内的	-10.4876
质疑	-10.4882
之道	-10.4884
雕	-10.4886
虚拟	-10.4893
一番	-10.4894
的角度	-10.4899
这里的	-10.4901
笔记	-10.4903
年间	-10.4903
差距	-10.4905
私人	-10.4907
投资人	-10.491
浦	-10.4911
还有一个	-10.4911
隔离	-10.4912
愤怒	-10.4913
续	-10.4914
延伸	-10.4916
还需要	-10.4919
酱	-10.4921
信仰	-10.4925
填写	-10.4925
激发	-10.4926
被动	-10.4929
讲述	-10.4929
征收	-10.4935
在网上	-10.4936
谈判	-10.4938
监	-10.4939
城区	-10.4939
白天	-10.494
做什么	-10.4943
孔子	-10.4944
安徽	-10.4947
梨	-10.4949
致力于	-10.4953
感冒	-10.4953
国王	-10.4956
身份证	-10.4956
的经历	-10.496
沉默	-10.4963
之人	-10.4968
血液	-10.497
翼	-10.4973
讲话	-10.4974
国家级	-10.4984
富有	-10.4988
电源	-10.4992
西部	-10.4993
昭	-10.4999
兔	-10.4999
生死	-10.5001
才有	-10.5001
分解	-10.5002
完整的	-10.5002
迎	-10.5002
教练	-10.5006
上来	-10.501
中介	-10.501
腔	-10.5011
强势	-10.5013
埋	-10.5015
漫画	-10.5016
警方	-10.502
平方米	-10.5021
美容	-10.5022
这场	-10.5023
稍微	-10.5025
主人	-10.5027
命令	-10.5028
寂寞	-10.5029
截至	-10.503
顺序	-10.5031
而成	-10.5034
跟踪	-10.5037
过多	-10.5041
接收	-10.505
串	-10.505
的部分	-10.5053
无力	-10.5056
的技术	-10.5057
曲线	-10.5059
踩	-10.5061
接待	-10.5061
纤维	-10.5063
发明	-10.5068
长沙	-10.5079
涨停	-10.508
;(	-10.508
的角色	-10.5083
厉害	-10.5083
某某	-10.5084
大地	-10.5085
抬	-10.5087
这个人	-10.5088
模块	-10.509
有一	-10.5091
):	-10.5091
好友	-10.5092
祭	-10.5094
现状	-10.51
是要	-10.5102
均匀	-10.5103
姚	-10.5105
资质	-10.5106
大致	-10.5109
兹	-10.511
有的人	-10.511
存储	-10.5113
把他	-10.5113
晒	-10.5119
的意见	-10.5121
其余	-10.5123
题材	-10.5123
用心	-10.5124
公平	-10.5129
刚开始	-10.513
都被	-10.513
几十	-10.5131
手指	-10.5132
不成	-10.5133
所得税	-10.5133
乡镇	-10.5133
贪	-10.5137
适量	-10.5138
含有	-10.5139
了一些	-10.5139
标准化	-10.5147
遵循	-10.5147
手法	-10.5149
种种	-10.5154
不幸	-10.5162
翠	-10.5163
三种	-10.517
果然	-10.5172
高速公路	-10.5173
众人	-10.5175
两者	-10.5177
一度	-10.5179
幼儿	-10.518
体制	-10.518
在那里	-10.5181
功夫	-10.5186
不起	-10.5193
娃	-10.5197
真心	-10.5197
电梯	-10.5198
坚	-10.5207
曝光	-10.5212
齿	-10.5215
现代化	-10.5215
分散	-10.5219
融入	-10.5222
感觉到	-10.5222
伸	-10.5228
各级	-10.5228
婆婆	-10.523
训	-10.5233
海军	-10.5235
两侧	-10.5236
申请人	-10.5236
块钱	-10.5237
祖国	-10.524
未能	-10.5241
仲	-10.5243
千万不要	-10.525
十五	-10.5254
的心理	-10.5254
就被	-10.5254
津	-10.5261
精品	-10.5265
葡萄	-10.5267
这点	-10.5267
学校的	-10.5268
坝	-10.5268
困	-10.5272
自身的	-10.5272
的教育	-10.5276
数字化	-10.5277
常见	-10.5279
垂直	-10.5284
古人	-10.5285
权益	-10.5289
以便	-10.529
丢	-10.5291
炼	-10.5295
硬件	-10.5297
:「	-10.53
效益	-10.5301
各国	-10.5305
总部	-10.531
老师的	-10.5311
惊喜	-10.5313
不错的	-10.5317
合成	-10.5318
紧急	-10.5321
挡	-10.5321
入学	-10.5323
框	-10.5325
奇迹	-10.5326
西班牙	-10.5328
短线	-10.5329
我不	-10.5332
就已经	-10.5337
语音	-10.5338
只要你	-10.534
多家	-10.534
不仅是	-10.5341
火车	-10.5341
就不会	-10.5343
窗口	-10.5343
不像	-10.5344
洁	-10.5346
订	-10.5348
:《	-10.5353
之类的	-10.5357
引入	-10.536
烦	-10.5362
三次	-10.5364
山水	-10.5366
5%	-10.5366
姓名	-10.5366
建造	-10.5367
幻想	-10.5369
如果说	-10.5371
苏州	-10.5375
眼泪	-10.538
扇	-10.5383
赢得	-10.5384
职位	-10.5384
倾	-10.5386
海南	-10.5388
公安	-10.5388
当作	-10.5391
库存	-10.5392
日益	-10.5397
搬	-10.5398
什么都	-10.5398
大海	-10.5402
因为他们	-10.5407
党员	-10.5409
妹	-10.541
完了	-10.5413
迹	-10.5415
长时间	-10.5415
打破	-10.5416
复试	-10.5416
专注	-10.5419
后者	-10.542
瓜	-10.5421
开车	-10.5424
全县	-10.5425
市场上	-10.543
挑选	-10.5431
帽	-10.5434
铝	-10.5439
勾	-10.5446
行驶	-10.5452
卿	-10.5454
掉了	-10.5456
得很	-10.546
我相信	-10.5461
福建	-10.5463
美女	-10.5466
热点	-10.5466
江湖	-10.5471
家中	-10.5472
壶	-10.5472
分开	-10.5473
肚子	-10.5477
逸	-10.5477
径	-10.5477
蜜	-10.5477
虾	-10.5479
是你	-10.548
主持人	-10.5486
符	-10.5486
止损	-10.5488
差别	-10.549
混凝土	-10.549
粥	-10.5492
之内	-10.5493
寸	-10.5495
映	-10.5497
忧	-10.5497
埃	-10.5498
土壤	-10.55
广播	-10.5503
他也	-10.5506
疾	-10.5506
江西	-10.5506
机遇	-10.5507
无比	-10.5509
花费	-10.5511
韦	-10.5513
如果有	-10.5513
书写	-10.5515
冒	-10.5517
一大	-10.5518
债券	-10.5523
十一	-10.5525
了不少	-10.5525
一眼	-10.5526
供给	-10.5527
是对	-10.5527
结算	-10.5527
一个个	-10.553
向下	-10.5531
退休	-10.5532
卦	-10.5532
看完	-10.5533
抵	-10.5537
娇	-10.5541
80%	-10.5542
这不是	-10.5543
遗址	-10.5543
趣	-10.5546
美好的	-10.5547
划分	-10.5548
安慰	-10.5549
逐	-10.5552
文献	-10.5553
的身体	-10.5553
获利	-10.5554
祝	-10.5555
筒	-10.5556
到处	-10.5556
我和	-10.5558
黎	-10.5559
一百	-10.5563
要点	-10.5566
因为你	-10.5566
城镇	-10.5566
新建	-10.5569
保健	-10.5571
带有	-10.5572
发动	-10.5574
美国的	-10.5575
庄家	-10.5577
一口	-10.5585
32	-10.5586
漆	-10.5589
告知	-10.5592
搭建	-10.5594
开关	-10.5596
歌曲	-10.5599
对他	-10.5599
穿越	-10.5601
住了	-10.5601
同样的	-10.5603
有钱	-10.5603
营造	-10.5605
的感情	-10.5607
绝大多数	-10.5611
做人	-10.5612
说是	-10.562
一会儿	-10.5621
刮	-10.5625
国产	-10.5628
然后再	-10.5633
自觉	-10.5633
佛法	-10.5634
口碑	-10.5634
我现在	-10.5636
似的	-10.5638
本质	-10.5638
这么多	-10.564
氧	-10.5641
葬	-10.5641
堡	-10.5641
职能	-10.5644
来自于	-10.5645
地上	-10.5645
进程	-10.5649
厦门	-10.5652
进展	-10.5655
一系列	-10.5655
的通知	-10.5659
专题	-10.5666
婆	-10.5667
长大	-10.5675
贼	-10.5678
擅长	-10.568
屏幕	-10.569
多年的	-10.5691
习	-10.5691
看不到	-10.5695
傅	-10.5695
一切都	-10.5698
的理解	-10.5701
策	-10.5701
献	-10.5702
纳税人	-10.5702
买房	-10.5703
150	-10.5704
三是	-10.5706
伪	-10.5712
上级	-10.5712
上线	-10.5714
无需	-10.5716
决	-10.5717
怨	-10.5719
会被	-10.5719
不存在	-10.572
筑	-10.572
书中	-10.5724
增速	-10.5726
玉米	-10.5729
陆续	-10.5729
艰难	-10.573
榜	-10.5733
真理	-10.5736
婴儿	-10.5737
平常	-10.5739
设有	-10.5742
他还	-10.5743
复杂的	-10.5744
排除	-10.575
了许多	-10.575
龄	-10.5751
不高	-10.5752
祸	-10.5752
西藏	-10.5755
不受	-10.5755
页面	-10.5757
干燥	-10.5757
总会	-10.5757
斗争	-10.5758
的心情	-10.5761
情节	-10.5762
巨头	-10.5763
三天	-10.5764
的压力	-10.5765
标签	-10.5766
的一部分	-10.5767
眼里	-10.5772
师生	-10.5776
缺点	-10.5779
意思	-10.5781
写了	-10.5785
化工	-10.5786
班主任	-10.5786
匹配	-10.5787
住在	-10.5788
也将	-10.5789
摘	-10.5789
关节	-10.5791
疫苗	-10.5792
鹰	-10.5801
极端	-10.5804
便利	-10.5804
&	-10.5804
尤	-10.5807
的空间	-10.5811
摄	-10.5823
一代	-10.5826
称之为	-10.5826
不一定	-10.5826
功效	-10.5831
发育	-10.5832
的不同	-10.5841
画家	-10.5841
的社会	-10.5842
放到	-10.5848
开始了	-10.5848
月亮	-10.5854
2002	-10.5854
不动	-10.5855
上网	-10.5858
课题	-10.5863
合理的	-10.5866
模糊	-10.5866
选用	-10.5875
无关	-10.5876
往往是	-10.5877
延续	-10.5877
节点	-10.5878
区分	-10.5878
丧	-10.5878
发起	-10.5879
100%	-10.5881
锡	-10.5883
十大	-10.5883
去找	-10.5885
估值	-10.5886
协同	-10.5886
替代	-10.5887
激动	-10.5887
考虑到	-10.5887
商场	-10.5892
自杀	-10.5892
大力	-10.5892
的最大	-10.5894
:1	-10.5902
留言	-10.5906
所得	-10.5907
舒适	-10.5908
近日	-10.5909
烈	-10.5913
鹤	-10.5921
忘了	-10.5922
副主任	-10.5929
的比例	-10.5933
洗净	-10.5933
等于	-10.5944
裂	-10.5945
充满了	-10.5947
授	-10.5949
依照	-10.595
经销商	-10.5953
通用	-10.5954
徒	-10.5956
频繁	-10.5957
少数	-10.596
荣获	-10.596
俩	-10.5964
北大	-10.5971
玩具	-10.5973
再说	-10.5973
的利益	-10.598
俄	-10.5983
收取	-10.5985
协	-10.5987
可以看出	-10.5992
牧	-10.5994
危害	-10.5995
年后	-10.5997
洒	-10.5998
的老	-10.5999
知识点	-10.6
小朋友	-10.6001
奏	-10.6003
的好	-10.6007
密码	-10.6007
家乡	-10.6008
模仿	-10.6015
安置	-10.6017
共产党	-10.6019
。」	-10.6022
养殖	-10.6025
蓝色	-10.6028
刊	-10.603
充电	-10.603
的专业	-10.6031
资助	-10.6034
碰到	-10.6036
处置	-10.604
商标	-10.6042
糖尿病	-10.6043
琳	-10.6043
新加坡	-10.6044
储备	-10.6049
加热	-10.6052
兆	-10.6053
不满	-10.6055
咸	-10.6056
对着	-10.6056
鼠	-10.6057
渐	-10.6059
谨慎	-10.6059
是否有	-10.606
数据显示	-10.606
闪	-10.606
抖音	-10.6061
烫	-10.6065
的消息	-10.6066
造成的	-10.6066
说法	-10.6069
震荡	-10.6069
你在	-10.6069
的城市	-10.607
普及	-10.6073
是很	-10.6076
的身份	-10.6083
点评	-10.6088
贫困	-10.6091
五十	-10.6092
百万	-10.6093
与此同时	-10.6094
魅力	-10.6097
依托	-10.6101
交叉	-10.6102
借鉴	-10.6103
一日	-10.6104
停车	-10.6105
控股	-10.6107
的说法	-10.611
含量	-10.6111
这一切	-10.6114
损伤	-10.6114
让学生	-10.6115
办学	-10.6115
少女	-10.6115
消毒	-10.6116
代替	-10.6122
弘	-10.6129
年来	-10.6135
崔	-10.6136
要知道	-10.6137
塑造	-10.6142
我们都	-10.6147
树立	-10.615
赔	-10.6153
》)	-10.6154
不安	-10.6156
治愈	-10.6159
巩固	-10.6163
的努力	-10.6166
就是一个	-10.6167
有关规定	-10.6168
葱	-10.6173
诸多	-10.6173
蛮	-10.6174
地区的	-10.6175
彼	-10.6183
添	-10.6184
投诉	-10.619
严重的	-10.619
知识产权	-10.6191
受理	-10.6191
习近平	-10.6195
凤凰	-10.6196
才知道	-10.6201
不对	-10.6202
以免	-10.6205
唇	-10.6206
主角	-10.6206
园林	-10.6207
一体化	-10.6209
ai	-10.621
获奖	-10.622
迈	-10.6221
对其	-10.6223
敲	-10.6224
常用	-10.6225
路径	-10.6225
过后	-10.6226
架构	-10.6228
种类	-10.6229
日期	-10.6229
泛	-10.623
到位	-10.6238
我没有	-10.624
不说	-10.6241
对接	-10.625
从来没有	-10.6251
境外	-10.6255
的成绩	-10.6257
表现出	-10.6257
燃烧	-10.6258
送给	-10.6258
家的	-10.626
培	-10.6262
有两个	-10.6264
实时	-10.6265
桃花	-10.6266
120	-10.6267
变革	-10.627
越多	-10.6271
了个	-10.6272
新生	-10.6272
一股	-10.6273
下方	-10.6273
士兵	-10.6275
臭	-10.6277
期望	-10.6277
喝酒	-10.6281
是如何	-10.6286
大事	-10.6287
有多少	-10.6294
进度	-10.6294
行走	-10.6295
自从	-10.6296
典型	-10.6297
羡慕	-10.6299
的就是	-10.6305
账号	-10.6307
qq	-10.6308
潭	-10.6308
翔	-10.6309
欲望	-10.6313
其他人	-10.6314
柴	-10.6322
所有人	-10.6324
靠近	-10.6324
钢琴	-10.6329
小型	-10.633
中共	-10.633
释	-10.6332
得出	-10.6332
槽	-10.6334
了自己的	-10.6334
组建	-10.6335
我对	-10.634
键	-10.634
康复	-10.634
st	-10.6342
只需要	-10.6344
两大	-10.6344
的书	-10.6345
市区	-10.6346
默	-10.6346
代谢	-10.6346
大幅	-10.6348
看书	-10.6348
场地	-10.6349
一辆	-10.6349
非洲	-10.6349
提起	-10.6351
缓慢	-10.6352
伟大的	-10.6357
使人	-10.6358
单纯	-10.6358
混乱	-10.6359
煎	-10.6362
缓	-10.6366
视野	-10.6366
开口	-10.6367
你想	-10.6371
我家	-10.6374
的看法	-10.6377
割	-10.6377
金融机构	-10.6381
变动	-10.6384
轻轻	-10.6384
瓷	-10.6385
也都	-10.639
运动员	-10.639
尸	-10.6397
忍不住	-10.6397
公寓	-10.6398
遭到	-10.6399
很多时候	-10.64
穆	-10.6403
诊	-10.6405
无疑	-10.6406
上海市	-10.6407
体重	-10.6408
精心	-10.6411
用力	-10.6412
加盟	-10.6412
激烈	-10.6417
悟	-10.6418
就是要	-10.642
大规模	-10.6421
占据	-10.6421
享	-10.6422
举报	-10.6424
脏	-10.6433
后果	-10.6438
疗法	-10.644
更容易	-10.6451
不妨	-10.6455
破产	-10.6455
钢铁	-10.6456
用途	-10.6459
茂	-10.6463
否定	-10.6464
传媒	-10.6465
有许多	-10.6466
直至	-10.6468
斌	-10.6469
用品	-10.6469
用人单位	-10.647
界面	-10.6471
山东省	-10.6472
旋转	-10.6475
个别	-10.6476
遭受	-10.6476
泡沫	-10.6477
新能源	-10.6478
产能	-10.6478
中国人民	-10.6483
发生在	-10.6486
渔	-10.6488
箭	-10.6489
熬	-10.649
犹	-10.649
浆	-10.6491
常见的	-10.6495
跟你	-10.6501
脂	-10.6502
人格	-10.6502
的家庭	-10.6507
取决于	-10.6515
学位	-10.6515
授予	-10.6515
谓	-10.6516
是怎么	-10.6517
龙头	-10.6519
冬季	-10.6523
享有	-10.6524
简历	-10.6526
一个小	-10.6528
一对	-10.653
帐	-10.6533
搜	-10.6534
揉	-10.6534
名为	-10.6535
当成	-10.6539
束	-10.6539
电视台	-10.6542
泰国	-10.6542
但却	-10.6542
仅仅是	-10.6543
不符合	-10.6544
暴力	-10.6553
切实	-10.6554
得了	-10.6555
轩	-10.6558
肯定是	-10.6559
制品	-10.6565
2001	-10.6566
之心	-10.6567
沃	-10.6574
潜力	-10.6575
也不知道	-10.6578
好处	-10.6578
郑州	-10.6579
的做法	-10.6581
绝望	-10.6582
犹如	-10.6582
使其	-10.6583
这些人	-10.6585
长安	-10.6587
过去的	-10.6588
帮你	-10.6591
在全国	-10.6591
纽约	-10.6592
送到	-10.6593
衰	-10.6593
公元	-10.6593
拍照	-10.6593
影响力	-10.66
到底是	-10.66
必要的	-10.6602
激光	-10.6602
不应该	-10.6603
ip	-10.6607
终身	-10.6609
解决了	-10.661
无效	-10.6612
频率	-10.6612
大气	-10.6613
首先要	-10.6614
迟	-10.6619
家居	-10.662
可用	-10.6621
教会	-10.6621
越大	-10.6623
耗	-10.6624
丘	-10.6631
更重要的	-10.6641
悬	-10.6641
安全生产	-10.6642
远程	-10.6643
的权利	-10.6643
同年	-10.6644
足以	-10.6644
耶	-10.6645
涨幅	-10.6645
静脉曲张	-10.6646
许可证	-10.6646
使用的	-10.6647
较多	-10.6649
身心	-10.665
黄河	-10.6654
克服	-10.6655
堵	-10.6656
深化	-10.6664
宠	-10.667
的成长	-10.6672
叠	-10.6676
朋友圈	-10.6679
走过	-10.668
格式	-10.668
纪律	-10.6687
博客	-10.6688
展览	-10.6691
棋	-10.6692
携带	-10.6695
听了	-10.6702
清除	-10.6703
一定程度	-10.6704
已成为	-10.6705
梳理	-10.6706
伟大	-10.6716
坚强	-10.6717
南北	-10.6717
万吨	-10.672
不止	-10.6723
图案	-10.6725
领先	-10.6725
做得	-10.6728
卓	-10.6729
下滑	-10.6731
了起来	-10.6731
尝	-10.6732
协商	-10.6732
的味道	-10.6733
每一次	-10.6743
旭	-10.6745
淘	-10.6746
踏	-10.6746
总裁	-10.6751
留在	-10.6751
平静	-10.6752
审判	-10.6754
花了	-10.6754
生理	-10.6754
涌	-10.6757
48	-10.6775
报警	-10.6775
也被	-10.6776
一副	-10.6777
季节	-10.6777
甚至是	-10.6778
删除	-10.678
都不会	-10.6782
具体的	-10.6783
鼻子	-10.6788
发达	-10.6789
在他	-10.679
实战	-10.6791
发生的	-10.6796
财经	-10.6797
终止	-10.6798
还是要	-10.6799
你能	-10.68
主导	-10.68
歌手	-10.68
服务器	-10.6801
而又	-10.6802
潜	-10.6804
入口	-10.6806
只不过	-10.6807
奉献	-10.6811
仔	-10.6811
科学技术	-10.6813
曹操	-10.6814
柯	-10.6818
管理者	-10.6818
草原	-10.6819
客服	-10.682
看好	-10.682
考验	-10.6821
错过	-10.6823
绿化	-10.6824
一处	-10.6825
扯	-10.6826
若是	-10.6827
跟随	-10.6827
摆脱	-10.6835
并将	-10.6835
志愿	-10.6836
我又	-10.684
参照	-10.684
桩	-10.6844
已经成为	-10.6844
欢乐	-10.6845
独特	-10.6847
上方	-10.6848
防御	-10.6848
38	-10.685
长城	-10.6854
天堂	-10.6854
了解到	-10.6858
水分	-10.6858
一下子	-10.686
涉	-10.6861
身后	-10.6866
窑	-10.6866
领取	-10.687
发送	-10.6873
辆	-10.6876
年初	-10.6876
天使	-10.6877
信托	-10.6878
担当	-10.6879
精华	-10.6879
撤	-10.6881
戏剧	-10.6882
侠	-10.6882
千里	-10.6885
我们也	-10.6889
中小企业	-10.6891
大门	-10.6893
赛季	-10.6893
不利	-10.6895
一首	-10.6897
家属	-10.6899
的儿子	-10.6899
频	-10.6899
找出	-10.6903
妇	-10.6905
简直	-10.6907
即使是	-10.6907
签约	-10.6908
开发商	-10.691
应急	-10.6913
就好	-10.6915
宾	-10.6915
词汇	-10.6915
印刷	-10.6918
饱	-10.6921
猜	-10.6923
只需	-10.6929
充	-10.693
回顾	-10.6931
开设	-10.6935
王朝	-10.6936
赋	-10.6941
讯	-10.6941
工作中	-10.6944
间的	-10.6948
地质	-10.6949
戈	-10.6949
两天	-10.6956
函	-10.6956
一同	-10.6956
形状	-10.6959
名校	-10.6964
薛	-10.6965
挣	-10.6969
生活方式	-10.6971
跃	-10.6972
风雨	-10.6972
要去	-10.6976
君子	-10.698
社保	-10.6984
豆腐	-10.6986
内地	-10.6986
提取	-10.6987
如果我们	-10.6992
普通人	-10.6992
新人	-10.6997
国民	-10.6997
一个是	-10.6998
为人	-10.7
月底	-10.7001
缸	-10.7003
电路	-10.7005
扶持	-10.7006
舒服	-10.7011
气息	-10.7016
内外	-10.7016
统筹	-10.7017
大大	-10.7018
不肯	-10.702
还不	-10.7022
落后	-10.7023
强烈的	-10.7027
访	-10.703
的眼睛	-10.7038
一身	-10.7039
头上	-10.7039
忽	-10.704
告诉我们	-10.7041
最高的	-10.7043
地狱	-10.7047
阿里巴巴	-10.7048
但是我	-10.705
援	-10.7053
起点	-10.7056
舆论	-10.7056
风光	-10.7057
病情	-10.7057
的父母	-10.7064
看上去	-10.7065
小小的	-10.707
中华民族	-10.7073
讨	-10.7074
缺陷	-10.7075
而来	-10.7078
在这种	-10.7081
仗	-10.7084
最多的	-10.7086
汝	-10.709
独自	-10.7092
的语言	-10.7093
门店	-10.7095
老年人	-10.7098
的爱情	-10.71
传奇	-10.7103
几个月	-10.7107
不断的	-10.7108
弟	-10.7108
期货	-10.7112
弗	-10.7114
常识	-10.7115
合适的	-10.7116
保养	-10.7116
栋	-10.7121
ar	-10.7122
脱离	-10.7125
泵	-10.7127
诞生	-10.7127
离开了	-10.7129
的投资	-10.713
蛋白质	-10.713
年开始	-10.713
眼中	-10.7131
笔试	-10.7131
积分	-10.7132
花钱	-10.7132
新时代	-10.7132
太子	-10.7133
聚焦	-10.7136
在家里	-10.7138
千年	-10.7138
的梦想	-10.7139
00	-10.714
一样的	-10.714
触	-10.7141
肿瘤	-10.7148
许可	-10.7148
源于	-10.715
转载	-10.7152
佐	-10.7152
的父亲	-10.7152
芽	-10.7157
高层	-10.7157
战场	-10.7159
战胜	-10.7159
去世	-10.7161
生动	-10.7163
不一样的	-10.7164
日前	-10.7166
流水	-10.7167
夏季	-10.717
桌	-10.717
慈善	-10.7171
粘	-10.7175
以往	-10.7175
责	-10.7175
答应	-10.7176
邮件	-10.7177
他会	-10.7178
和他	-10.7179
驾	-10.7179
容量	-10.718
社会保障	-10.7185
的爱	-10.7186
节约	-10.7189
33	-10.7191
盲目	-10.7199
in	-10.7199
参加了	-10.72
平面	-10.7201
一带	-10.7204
扮演	-10.7209
一手	-10.721
砍	-10.7213
斋	-10.7215
天才	-10.7216
项目的	-10.7216
催	-10.7217
游泳	-10.7217
沿着	-10.7222
运气	-10.7223
撑	-10.7224
既有	-10.7226
罚	-10.7231
都需要	-10.7231
倒是	-10.7235
出席	-10.7235
相同的	-10.7236
存在的	-10.7241
日常生活	-10.7241
物体	-10.7242
的食物	-10.7245
巴菲特	-10.7247
东南	-10.725
高铁	-10.7251
悲伤	-10.7251
温泉	-10.7252
友好	-10.7253
旅客	-10.7256
图形	-10.7259
灌	-10.726
氧化	-10.726
那边	-10.726
合适	-10.7261
打印	-10.7262
下一个	-10.7263
荷	-10.7268
清醒	-10.7273
▁“	-10.7273
就可以了	-10.7275
阻止	-10.7276
踢	-10.7277
说什么	-10.7281
的手	-10.7281
就是在	-10.7281
对不起	-10.7281
咳嗽	-10.7282
或者说	-10.7283
有力	-10.7284
出于	-10.7287
玲	-10.729
河南省	-10.7296
会导致	-10.7296
多年来	-10.7298
如果不	-10.7298
妮	-10.7299
的感受	-10.7299
屈	-10.7303
的任务	-10.7305
er	-10.7306
邻	-10.7308
幅度	-10.7313
声明	-10.7314
极大	-10.7314
玫瑰	-10.732
沾	-10.7324
芯	-10.7324
上有	-10.7324
收拾	-10.7326
之际	-10.7329
善良	-10.7335
利息	-10.7337
豪华	-10.7341
战士	-10.7345
转身	-10.7348
的形象	-10.7348
疲劳	-10.7349
大多数人	-10.735
开拓	-10.7352
扩展	-10.7353
酷	-10.7353
投放	-10.7358
偶	-10.7361
生活在	-10.7362
改为	-10.7363
生态环境	-10.7365
典	-10.7365
空中	-10.7366
右手	-10.737
我已经	-10.737
的地位	-10.7372
赐	-10.7375
出国	-10.7375
法师	-10.7377
偶然	-10.7378
去除	-10.7378
起床	-10.7388
江苏省	-10.7394
澳大利亚	-10.7396
敷	-10.7396
贵族	-10.7396
跑到	-10.7397
若干	-10.7398
婚礼	-10.7399
的照片	-10.74
竖	-10.7401
疑问	-10.7403
统治	-10.7403
爆炸	-10.7404
莎	-10.7408
边缘	-10.7408
旋	-10.741
流传	-10.7411
公式	-10.7412
物业	-10.7414
便于	-10.7415
没办法	-10.7415
城乡	-10.7423
呆	-10.7424
女孩子	-10.7424
荡	-10.7424
述	-10.7428
人在	-10.7429
假期	-10.743
打了	-10.7432
毅	-10.7433
弓	-10.7435
线索	-10.7438
我不知道	-10.7438
定制	-10.7438
许多人	-10.7441
黄色	-10.7442
两条	-10.7443
的那个	-10.7446
脾	-10.7446
慈	-10.7446
他对	-10.7447
已经是	-10.7447
复合	-10.7448
有一定	-10.7449
过分	-10.7452
34	-10.7452
出资	-10.7456
啤酒	-10.7457
下列	-10.7458
除非	-10.746
劳动者	-10.7463
高温	-10.7464
满了	-10.7465
和社会	-10.7466
环境保护	-10.7466
仰	-10.7466
健全	-10.7467
黑暗	-10.7469
评审	-10.747
奈	-10.747
热门	-10.7473
备考	-10.7474
赠	-10.7476
促	-10.7476
好看	-10.7476
所以我们	-10.7478
知道自己	-10.7479
走路	-10.7483
儒	-10.7489
透明	-10.7489
王子	-10.749
热闹	-10.749
因为它	-10.749
给人	-10.749
清单	-10.7492
十六	-10.7496
散户	-10.7496
坎	-10.7497
呵呵	-10.7499
住宿	-10.75
的理由	-10.7503
书记	-10.7508
毕业后	-10.7508
理事会	-10.751
没事	-10.7512
的成功	-10.7514
裤	-10.7514
处在	-10.7514
这边	-10.7514
改变了	-10.7516
滩	-10.7517
公交	-10.752
凝	-10.7521
进入了	-10.7522
素材	-10.7522
蛋白	-10.7527
好多	-10.7527
阿姨	-10.7527
气氛	-10.7528
三个月	-10.7529
圆满	-10.7532
发票	-10.7533
率先	-10.7534
配送	-10.7534
交付	-10.7536
场合	-10.7536
禄	-10.7541
远远	-10.7544
崖	-10.7545
这对	-10.7547
约束	-10.755
东京	-10.7552
明显的	-10.7553
捷	-10.7553
投票	-10.7556
宽容	-10.7557
枯	-10.7558
主要有	-10.7563
耳朵	-10.7564
承办	-10.7564
明明	-10.7567
吃的	-10.7567
做成	-10.7568
尴尬	-10.7568
美国人	-10.7571
杀人	-10.7572
解答	-10.7572
法定	-10.7578
相机	-10.758
对面	-10.7581
频道	-10.7585
可谓	-10.7585
存款	-10.7585
集成	-10.7588
的道理	-10.7588
夫妇	-10.7588
创造了	-10.7588
虚假	-10.759
时常	-10.7591
海上	-10.7593
技	-10.76
消灭	-10.76
毁	-10.7604
都说	-10.7606
:(	-10.7609
民警	-10.7609
中原	-10.7615
妆	-10.7616
喂	-10.7616
处处	-10.7616
幽默	-10.7619
成为一个	-10.7619
但也	-10.7623
给出	-10.7623
内涵	-10.7624
书面	-10.7631
是没有	-10.7635
还得	-10.7636
信贷	-10.7636
官网	-10.7641
而后	-10.7642
霸	-10.7643
轨道	-10.7647
繁荣	-10.7648
舰	-10.765
it	-10.765
整改	-10.7652
见过	-10.7653
条例	-10.7654
弥补	-10.7657
醒来	-10.7659
各种各样	-10.766
阀	-10.7669
创业者	-10.767
有一定的	-10.7671
指南	-10.7671
饮料	-10.7672
有趣	-10.7673
以此	-10.7677
整治	-10.7677
山区	-10.7679
乘客	-10.7684
战术	-10.7688
赛事	-10.7691
多元	-10.7695
辅	-10.7696
情形	-10.7697
的水	-10.7698
恐怖	-10.7701
沈阳	-10.7702
小心	-10.7704
的距离	-10.7707
电器	-10.7708
长度	-10.7709
而非	-10.7709
不做	-10.7711
提供的	-10.7713
俱	-10.7714
传统文化	-10.7715
苑	-10.7718
任何一个	-10.7719
剩下的	-10.7721
队员	-10.7724
特朗普	-10.7726
我还是	-10.7727
讨厌	-10.773
以下简称	-10.7733
推行	-10.7733
下属	-10.7733
很可能	-10.7733
门槛	-10.7735
铸	-10.7735
顶级	-10.774
剧本	-10.774
细菌	-10.7741
午	-10.7743
连锁	-10.7746
几种	-10.775
是可以	-10.775
选项	-10.7755
什	-10.7756
轨	-10.7761
浪漫	-10.7761
前者	-10.7763
伤心	-10.7764
对自己的	-10.7765
尽可能	-10.7765
不已	-10.7766
使命	-10.7767
能在	-10.7769
分成	-10.7771
版权	-10.7775
灾难	-10.7779
验收	-10.7782
崩溃	-10.7782
摔	-10.7784
突	-10.7784
总量	-10.7786
第七	-10.7786
越高	-10.779
途中	-10.7791
要做	-10.7793
智力	-10.7793
配备	-10.7794
工作者	-10.7795
名人	-10.7795
白酒	-10.7798
定价	-10.7798
气质	-10.78
伞	-10.7801
暑假	-10.7802
旗下	-10.7803
冷静	-10.7805
背诵	-10.7808
他们在	-10.781
缴费	-10.7815
说起	-10.7815
骄傲	-10.7816
就是这样	-10.7816
37	-10.7817
妃	-10.7818
龟	-10.7819
排列	-10.782
注意到	-10.782
崇	-10.7826
逛	-10.7827
从中	-10.7827
察	-10.7829
住院	-10.783
法律法规	-10.7833
的房子	-10.7833
验	-10.7834
寅	-10.7834
的国家	-10.7834
有序	-10.7834
安静	-10.7837
桶	-10.7837
的具体	-10.7839
不变	-10.7841
高压	-10.7842
重建	-10.7842
相结合	-10.7849
书画	-10.7849
神话	-10.7851
拥抱	-10.7853
遇到了	-10.7855
但这	-10.7856
就连	-10.7857
真诚	-10.7858
把你	-10.7862
资讯	-10.7868
倒入	-10.7869
ta	-10.7869
腐败	-10.7871
55	-10.7871
强制	-10.7872
前来	-10.7872
绳	-10.7873
多人	-10.7877
拍卖	-10.788
电流	-10.7881
透过	-10.7885
某一	-10.7887
研制	-10.7892
来源于	-10.7894
冒险	-10.7894
说出	-10.7894
懒	-10.7898
这篇文章	-10.7901
le	-10.7906
产业发展	-10.7906
促使	-10.7906
监察	-10.7909
师范大学	-10.7911
左手	-10.7911
碳	-10.7912
乘坐	-10.7913
专科	-10.7919
卖家	-10.7919
号线	-10.792
实际情况	-10.7921
代表大会	-10.7925
好奇	-10.7926
浙江省	-10.7932
报纸	-10.7933
地域	-10.794
少了	-10.7941
早晨	-10.7942
资本市场	-10.7944
发酵	-10.7945
年以来	-10.7945
鑫	-10.795
起诉	-10.7957
一杯	-10.7959
毕	-10.796
明年	-10.7962
央行	-10.7965
皇后	-10.7965
敢于	-10.7965
一台	-10.7965
的艺术	-10.7965
而且还	-10.7965
我很	-10.7965
联赛	-10.797
的活动	-10.7972
说完	-10.7976
刻意	-10.7977
陶瓷	-10.798
郁	-10.7981
自行车	-10.7985
文本	-10.7986
公正	-10.7986
校区	-10.7987
优点	-10.7988
公示	-10.7989
会上	-10.7989
开学	-10.7991
01	-10.7995
危	-10.7995
却又	-10.8
大哥	-10.8006
焊	-10.8008
开发区	-10.8008
的公司	-10.8015
感知	-10.8016
跟他	-10.8021
马云	-10.8021
适	-10.8021
他自己	-10.8027
领袖	-10.8027
雁	-10.8028
四周	-10.8032
别墅	-10.8032
日报	-10.8035
全是	-10.8035
的应用	-10.8038
在我们	-10.8038
特殊的	-10.8038
牵	-10.8041
竞争对手	-10.8042
即是	-10.8043
宁波	-10.8043
二级	-10.8046
节日	-10.8047
称号	-10.8047
电压	-10.8052
惹	-10.8052
护士	-10.8055
发布的	-10.8057
盟	-10.8061
符号	-10.8065
两个月	-10.8065
用手	-10.8066
有望	-10.8066
著作	-10.8066
一波	-10.8067
90%	-10.8069
长得	-10.8071
我把	-10.8072
头脑	-10.8074
萍	-10.8075
坤	-10.8076
惩罚	-10.808
夸	-10.8086
这一次	-10.8087
典型的	-10.8088
不算	-10.809
承包	-10.809
排队	-10.8091
巷	-10.8092
一幅	-10.8092
谢谢	-10.8093
除此之外	-10.8094
人气	-10.8097
哀	-10.8099
的脸	-10.8102
我发现	-10.8102
委屈	-10.8102
来到了	-10.8103
浓度	-10.8104
生涯	-10.8111
商人	-10.8114
仿	-10.8117
面子	-10.8117
那个时候	-10.8118
这是我	-10.8121
营业	-10.8124
明白了	-10.8131
首都	-10.8133
屯	-10.8134
将在	-10.8134
着急	-10.8134
化的	-10.8134
里面的	-10.8135
在内的	-10.8137
充足	-10.8137
模板	-10.8139
在你	-10.8142
童年	-10.8143
纠结	-10.8146
才发现	-10.8147
帮我	-10.8149
清华	-10.815
沪	-10.8152
入手	-10.8152
无聊	-10.8154
凡是	-10.8155
鉴	-10.8156
单一	-10.8163
不上	-10.8164
第一时间	-10.8165
沙漠	-10.8168
助理	-10.817
谭	-10.8172
亲戚	-10.8174
宠物	-10.8178
不过是	-10.818
的衣服	-10.8181
遇见	-10.8181
有过	-10.8182
内蒙古	-10.8183
人人	-10.8187
幸	-10.8187
等问题	-10.8188
发言	-10.8189
化妆品	-10.819
世界的	-10.8191
判	-10.8195
罢了	-10.8199
兄	-10.8206
谈话	-10.8208
喜爱	-10.8213
是非	-10.8214
欧美	-10.8218
为止	-10.822
古城	-10.8221
清新	-10.8223
凑	-10.8223
出血	-10.8229
游览	-10.8229
等工作	-10.823
等着	-10.823
也不要	-10.8233
动漫	-10.8235
编写	-10.8237
判决	-10.8238
给他们	-10.8241
牛肉	-10.8242
随机	-10.8243
汇报	-10.8245
曾在	-10.8246
所在地	-10.8249
我当时	-10.8251
宪法	-10.8253
太平	-10.8254
邻居	-10.8257
播放	-10.8257
3%	-10.826
唱歌	-10.8262
传输	-10.8262
蜀	-10.8263
联想	-10.8263
材质	-10.8263
盯着	-10.8266
所以在	-10.8267
开头	-10.8267
窄	-10.8272
散文	-10.8272
民生	-10.8273
牢	-10.8274
门票	-10.8275
葛	-10.8276
全年	-10.8276
无线	-10.828
拼命	-10.828
解析	-10.8284
本土	-10.8288
勿	-10.8288
列车	-10.8289
山上	-10.8289
村庄	-10.8291
的母亲	-10.8292
罗马	-10.8292
颈	-10.8294
调解	-10.8296
越南	-10.8297
篮球	-10.8297
公安机关	-10.8297
轻易	-10.8298
的第一	-10.83
立法	-10.8301
谈到	-10.8301
市值	-10.8302
奇怪	-10.8303
度过	-10.8305
规矩	-10.8306
免疫	-10.8307
和尚	-10.8308
入选	-10.8309
的认识	-10.8309
▁第三百	-10.831
立体	-10.831
扔	-10.8318
出场	-10.832
钩	-10.8325
蒙古	-10.8325
商业模式	-10.8327
的市场	-10.8332
买的	-10.8334
得不到	-10.8336
和你	-10.8337
只有一个	-10.834
多久	-10.834
此类	-10.834
均为	-10.8341
家电	-10.8341
租金	-10.8349
笼	-10.835
织	-10.835
的命运	-10.8351
贵州	-10.8352
所以说	-10.8359
金刚	-10.8359
熙	-10.836
华人	-10.8362
认识到	-10.8362
感悟	-10.8364
却没有	-10.8365
法治	-10.8366
人均	-10.8366
怡	-10.8367
筹	-10.8368
对中国	-10.837
老子	-10.8372
是真的	-10.8373
知乎	-10.8374
哈哈	-10.8374
根本不	-10.8375
仇	-10.8375
捧	-10.8379
扣除	-10.8381
这部	-10.8381
化解	-10.8386
崛起	-10.8386
科普	-10.8389
政权	-10.839
污	-10.8401
穿过	-10.8401
枚	-10.8405
新区	-10.8405
组成的	-10.8408
的文化	-10.8409
葡萄酒	-10.8409
启发	-10.8409
垄断	-10.841
秋天	-10.8412
再来	-10.8413
1999	-10.8415
途	-10.8415
再度	-10.8418
70%	-10.8419
任何人	-10.842
早餐	-10.8421
的办法	-10.8421
爱人	-10.8422
铭	-10.8422
甩	-10.8423
越好	-10.8424
次数	-10.8425
1%	-10.8426
影像	-10.8428
起步	-10.8431
十四	-10.8432
你也	-10.8433
的支持	-10.8433
之旅	-10.8434
漫	-10.8436
事后	-10.844
不应	-10.8441
密度	-10.8444
猴	-10.8447
市委	-10.845
劳动合同	-10.8451
勤奋	-10.8451
菊	-10.8451
伴随着	-10.8455
棚	-10.8455
后再	-10.8456
小白	-10.8458
迎接	-10.8459
证实	-10.8459
这些都是	-10.846
我们会	-10.846
罩	-10.8462
并购	-10.8462
你还	-10.8463
抽象	-10.8465
要用	-10.8466
所需	-10.8467
选举	-10.8467
用地	-10.847
违规	-10.847
静脉	-10.8485
这座	-10.8486
专业课	-10.8486
修炼	-10.8489
的因素	-10.8492
但是在	-10.8495
陌生	-10.8503
勇敢	-10.8505
坊	-10.8507
唯有	-10.8517
半小时	-10.8518
年纪	-10.8518
传来	-10.8521
数十	-10.8522
你知道	-10.8523
最后的	-10.8524
世人	-10.8526
为之	-10.8527
外交	-10.853
翁	-10.8531
平稳	-10.8533
蜂蜜	-10.8533
的趋势	-10.8537
浇	-10.8537
紧密	-10.8541
是不	-10.8542
完美的	-10.8544
神奇	-10.8545
总额	-10.8546
枕	-10.8546
出来了	-10.8549
斯特	-10.8549
辩	-10.8551
每天都	-10.8551
客厅	-10.8551
平方公里	-10.8552
取代	-10.8553
决定了	-10.8553
男朋友	-10.8555
稀	-10.8556
会让	-10.8559
充实	-10.8559
身材	-10.8559
一直是	-10.8561
衡量	-10.8562
细腻	-10.8566
主观	-10.8569
潮流	-10.857
从来不	-10.8571
留给	-10.8573
日记	-10.8575
解脱	-10.8576
指责	-10.8576
调控	-10.8577
嫌	-10.8579
难过	-10.8581
猎	-10.8583
成立了	-10.8584
煤炭	-10.8584
加油	-10.8585
高峰	-10.8586
编程	-10.8589
殷	-10.8589
说着	-10.8594
领导人	-10.8596
外观	-10.8597
借款	-10.8597
足够的	-10.8598
体力	-10.8598
规格	-10.86
又称	-10.8603
执着	-10.8604
运转	-10.8604
离不开	-10.8609
网红	-10.8613
贞	-10.8613
研究中心	-10.8614
都市	-10.8622
巴西	-10.8622
暴露	-10.8624
的例子	-10.8624
昏	-10.8624
赋予	-10.8626
咱	-10.8628
信念	-10.863
照明	-10.8631
水利	-10.8631
功德	-10.8634
忽略	-10.8636
变形	-10.8637
我妈	-10.864
交易所	-10.8643
又能	-10.8645
膝	-10.8646
防守	-10.8646
的女儿	-10.8647
五大	-10.8648
排水	-10.8649
先进的	-10.8649
艺人	-10.8651
助力	-10.8651
绩效	-10.8652
长达	-10.8653
中期	-10.8655
三人	-10.8661
类别	-10.8661
坚守	-10.8662
没法	-10.8663
走上	-10.8665
与其他	-10.8668
芬	-10.8669
的区别	-10.8669
爱你	-10.8669
在上海	-10.867
告诉记者	-10.8671
耀	-10.8672
到最后	-10.868
其他的	-10.8682
感慨	-10.8683
告诉他	-10.8687
念佛	-10.8691
总监	-10.8692
功率	-10.8693
通风	-10.8693
叹	-10.8695
一会	-10.8696
开通	-10.8696
朋友们	-10.8697
涉及到	-10.8697
有权	-10.8699
越是	-10.87
付费	-10.8701
工作室	-10.8701
办事	-10.8702
法官	-10.8704
疗效	-10.8704
的未来	-10.8705
伦敦	-10.8705
国有	-10.8708
十几	-10.8712
也许是	-10.8714
干什么	-10.8719
沉淀	-10.8719
面部	-10.8719
恋	-10.872
河流	-10.872
眼镜	-10.8721
舱	-10.8722
因为我们	-10.8723
电信	-10.8726
儿女	-10.8727
关爱	-10.8729
很快就	-10.8735
再到	-10.8735
有问题	-10.8737
庚	-10.8738
那位	-10.8739
预约	-10.8739
可以选择	-10.8739
惟	-10.8739
尹	-10.874
经历过	-10.874
奥运会	-10.8743
要在	-10.8743
仓库	-10.8743
亮点	-10.8744
刚好	-10.8744
脾气	-10.875
分别是	-10.8752
在外	-10.8753
乾	-10.8756
受益	-10.8757
行程	-10.8761
魔法	-10.8766
毒素	-10.8767
和发展	-10.8768
协作	-10.8771
汽	-10.8772
比喻	-10.8772
富贵	-10.8776
税务	-10.8777
太极拳	-10.8777
防护	-10.8779
斩	-10.878
的情感	-10.8781
到来	-10.8784
上游	-10.8787
重量	-10.8788
的游戏	-10.8788
听见	-10.8788
手上	-10.8791
这家	-10.8792
知道了	-10.8793
转发	-10.8794
阶层	-10.8796
女主	-10.8798
招标	-10.8799
会长	-10.8799
要看	-10.8803
很多人都	-10.8803
命题	-10.8804
付款	-10.8806
登陆	-10.881
可怜	-10.8811
的对象	-10.8813
惨	-10.8813
了我	-10.8814
播出	-10.8815
中枢	-10.8815
Y	-10.8816
商店	-10.8816
此事	-10.8816
感激	-10.8817
村里	-10.8817
候	-10.8818
仪器	-10.882
星星	-10.8823
重组	-10.8824
渗透	-10.8824
▁4	-10.8827
逃避	-10.8832
来做	-10.8834
气体	-10.8837
燃	-10.8837
国际化	-10.8837
大战	-10.8838
正常的	-10.8838
电动	-10.8838
大国	-10.8839
的本质	-10.8841
暮	-10.8842
在意	-10.8842
海关	-10.8843
救援	-10.8848
此刻	-10.8854
结局	-10.8856
之前的	-10.8859
落户	-10.8863
激活	-10.8865
朴	-10.8866
的收入	-10.8867
周年	-10.8867
区间	-10.8869
爱好者	-10.887
躲	-10.8872
日军	-10.8874
萌	-10.8874
的资金	-10.8875
▁从	-10.8875
意志	-10.8875
这块	-10.8876
疫情防控	-10.8879
战役	-10.8881
引用	-10.8884
营收	-10.8884
日后	-10.8886
另一种	-10.8888
视角	-10.8889
节省	-10.8891
大队	-10.8892
火箭	-10.8894
挫折	-10.8894
国家的	-10.8895
医保	-10.8895
狮	-10.8898
原文	-10.8906
公斤	-10.8906
科学院	-10.8909
前方	-10.891
构造	-10.8911
储	-10.8911
概括	-10.8912
▁·	-10.8912
做完	-10.8913
一等奖	-10.8914
考场	-10.8914
号码	-10.8916
录音	-10.8916
父母的	-10.8916
拟订	-10.892
被告	-10.8924
老年	-10.8925
一个问题	-10.8928
蒜	-10.8928
那你	-10.8929
生产的	-10.8932
不清楚	-10.8933
真的很	-10.8934
极大的	-10.8935
困惑	-10.8937
董事会	-10.8938
民国	-10.8938
学业	-10.8938
每一个人	-10.8938
泄	-10.8939
坪	-10.8939
基础上	-10.8939
对应的	-10.894
相继	-10.894
买家	-10.8941
加班	-10.8942
唐代	-10.8942
震撼	-10.8944
放弃了	-10.8945
管理办法	-10.895
披露	-10.8952
月初	-10.8953
的环境	-10.8953
车站	-10.8956
以至于	-10.8956
例子	-10.8957
被迫	-10.8957
既是	-10.8958
还好	-10.8959
输送	-10.896
忙碌	-10.896
清代	-10.8962
罢	-10.8967
救助	-10.8968
国防	-10.8969
防范	-10.897
纠正	-10.8976
牙齿	-10.8978
高质量	-10.8979
压缩	-10.8979
re	-10.8981
犹豫	-10.8981
从前	-10.8983
光线	-10.8983
筹码	-10.8984
海拔	-10.8985
四川省	-10.8986
户口	-10.8989
冷却	-10.8989
密集	-10.899
伤口	-10.8991
多元化	-10.8993
普通的	-10.8994
器官	-10.8997
高位	-10.8997
该公司	-10.8997
古典	-10.9001
不爱	-10.9002
全新	-10.9003
生病	-10.9003
宴	-10.9003
一堆	-10.9004
严肃	-10.9017
发现自己	-10.9017
四季	-10.9019
购房	-10.9019
矮	-10.9021
晕	-10.9021
套路	-10.9021
言语	-10.9023
id	-10.9024
桐	-10.9025
脊	-10.9026
修养	-10.9026
蛋糕	-10.9027
一丝	-10.9029
慕	-10.9032
无穷	-10.9032
留下了	-10.9035
枫	-10.9036
函数	-10.9036
情怀	-10.9037
说说	-10.9038
兼职	-10.904
前景	-10.9041
票房	-10.9041
亲人	-10.9048
安全感	-10.9048
爱国	-10.9052
靖	-10.9055
廷	-10.9057
嘴里	-10.9058
她是	-10.906
竞	-10.9065
齐全	-10.9066
截	-10.9068
醇	-10.9069
一般的	-10.907
看得	-10.9071
八卦	-10.9072
产权	-10.9074
的兴趣	-10.9074
简称	-10.9075
漂亮的	-10.9077
秘书长	-10.9078
学问	-10.9078
AI	-10.9078
就好了	-10.9079
智能化	-10.9081
跑步	-10.9081
补助	-10.9082
99	-10.9082
2%	-10.9087
适宜	-10.9087
手工	-10.9088
的经济	-10.9091
困境	-10.9092
形容	-10.9092
电机	-10.9092
一组	-10.9093
家园	-10.9093
负面	-10.9094
隐藏	-10.9095
现任	-10.9096
导弹	-10.9096
捏	-10.9098
提出的	-10.9099
签署	-10.91
原因是	-10.91
捐赠	-10.9101
极限	-10.9104
闷	-10.9107
问题的	-10.9108
气血	-10.9109
的项目	-10.911
拿起	-10.9111
但如果	-10.9115
勇气	-10.9117
济南	-10.9118
en	-10.9119
受到了	-10.9124
保守	-10.9125
诈骗	-10.9125
风情	-10.9125
邮	-10.9126
露出	-10.9127
事先	-10.9128
是他	-10.9132
植	-10.9132
每当	-10.9134
均衡	-10.9136
为其	-10.9137
昆明	-10.914
不清	-10.9142
覆	-10.9143
历经	-10.9143
女朋友	-10.9143
辣椒	-10.915
未必	-10.9152
社团	-10.9153
一双	-10.9153
不当	-10.9154
递	-10.9155
招商	-10.9157
预警	-10.9157
盲	-10.9158
琪	-10.9158
空军	-10.9158
为他	-10.9161
秘	-10.9161
一般来说	-10.9162
予	-10.9164
纱	-10.9165
合作伙伴	-10.9169
提高了	-10.9171
枣	-10.9174
于此	-10.9174
又一次	-10.9179
句子	-10.918
表情	-10.918
吓	-10.9182
短视频	-10.9183
坦克	-10.9184
学费	-10.9187
汉语	-10.9187
封闭	-10.9191
还有很多	-10.9192
的颜色	-10.9193
欺骗	-10.9194
只见	-10.9199
上世纪	-10.92
对孩子	-10.9202
较大的	-10.9202
75	-10.9202
入门	-10.9202
物联网	-10.9203
涵	-10.9203
老大	-10.9206
其实就是	-10.9208
拉升	-10.9209
出手	-10.921
望着	-10.921
1998	-10.9211
你会发现	-10.9211
采集	-10.9211
劳动力	-10.9215
IP	-10.9218
人们的	-10.9219
滴滴	-10.9221
支付宝	-10.9225
辉煌	-10.9229
主播	-10.9229
之日起	-10.9233
分别为	-10.9235
信息技术	-10.9236
抵达	-10.9238
国民党	-10.9242
情报	-10.9243
气象	-10.9246
人为	-10.9248
武装	-10.9248
第二百	-10.9251
再去	-10.9252
苍	-10.9253
楼市	-10.9254
边界	-10.9254
缴	-10.9254
可在	-10.9255
品类	-10.9255
荷兰	-10.9258
各方	-10.9258
全力	-10.9259
颗	-10.9259
撤销	-10.9259
不明	-10.926
占有	-10.9262
了下来	-10.9264
撰写	-10.9265
缩短	-10.9265
注意事项	-10.9267
感叹	-10.9268
」,	-10.9269
街头	-10.927
贡	-10.9271
下游	-10.9271
全新的	-10.9277
狮子	-10.9278
宁静	-10.9279
新技术	-10.9281
最具	-10.9282
不准	-10.9283
比起	-10.9284
采用了	-10.9285
玩法	-10.9287
大连	-10.9287
附近的	-10.9288
一夜	-10.929
钙	-10.9291
所说	-10.9292
糊	-10.9294
爱好	-10.9298
的那种	-10.9301
仲裁	-10.9301
我去	-10.9303
的服务	-10.9304
晃	-10.9304
浸	-10.9305
的质量	-10.9308
你怎么	-10.9308
正义	-10.931
过得	-10.9312
湖南省	-10.9313
高新技术	-10.9313
码头	-10.9315
介	-10.9315
株	-10.9315
水中	-10.932
师父	-10.9321
大胆	-10.9324
厕所	-10.9326
爸妈	-10.9327
浴	-10.9331
审美	-10.9332
明代	-10.9332
就必须	-10.9333
路口	-10.9333
三角	-10.9337
我一直	-10.934
的动作	-10.9341
类似的	-10.9343
痰	-10.9343
平凡	-10.9346
价位	-10.9347
形成的	-10.9347
。6	-10.9348
港口	-10.9349
也需要	-10.9349
他认为	-10.935
清水	-10.9351
州市	-10.9353
按钮	-10.9356
又要	-10.9362
迷茫	-10.9363
大厦	-10.9366
出现的	-10.9366
进化	-10.9367
饭店	-10.9367
这项	-10.9367
08	-10.9368
拐	-10.9368
传感器	-10.9371
这两	-10.9372
说我	-10.9373
监狱	-10.9373
北京大学	-10.9376
交互	-10.9376
联合国	-10.9376
太过	-10.9377
定律	-10.9381
谦	-10.9381
驱	-10.9386
时空	-10.9388
较低	-10.9388
辞职	-10.9389
的人员	-10.9389
贫	-10.9389
党的	-10.939
出的	-10.939
分工	-10.939
每人	-10.939
回国	-10.9391
损坏	-10.9392
做个	-10.9393
扫描	-10.9396
瞎	-10.9401
嘉宾	-10.9401
用户的	-10.9401
拆除	-10.9402
消极	-10.9405
深圳市	-10.9405
已经被	-10.9406
咒	-10.9408
新城	-10.9409
正规	-10.9413
下一步	-10.9415
新媒体	-10.9417
不停地	-10.9421
娶	-10.9421
长久	-10.9421
底层	-10.9423
薪酬	-10.9423
在学校	-10.9424
化妆	-10.9424
挽回	-10.9426
大桥	-10.9426
昨日	-10.9428
姿	-10.9428
自律	-10.9429
一件事	-10.9435
会产生	-10.9439
深受	-10.944
素养	-10.9442
就说	-10.9443
1:	-10.9443
阻	-10.9443
了他	-10.9445
资深	-10.9446
请问	-10.9446
日本人	-10.9446
一分	-10.9448
一碗	-10.9448
偷偷	-10.9451
莲花	-10.9451
偶像	-10.9453
基金会	-10.9456
事宜	-10.9456
二者	-10.9457
深深	-10.9457
的理念	-10.9459
怀孕	-10.9459
创办	-10.9461
报销	-10.9464
合伙人	-10.9464
暗示	-10.9465
开门	-10.9467
我喜欢	-10.9471
登录	-10.9473
增大	-10.9473
倡导	-10.9473
×	-10.9473
迎来	-10.9474
行使	-10.9474
鹅	-10.9476
还原	-10.9476
南海	-10.9478
兮	-10.9479
陷阱	-10.948
违	-10.9481
道歉	-10.9484
一体	-10.9484
的政治	-10.9486
姑	-10.9487
能让	-10.9487
阻碍	-10.9488
王国	-10.9489
干脆	-10.9489
我们将	-10.9489
法制	-10.9489
老家	-10.9494
切割	-10.9495
媳妇	-10.9496
但由于	-10.9498
集合	-10.9499
当日	-10.9499
从不	-10.95
痕	-10.9501
过去了	-10.9506
幕	-10.9508
你不	-10.9509
条件下	-10.9511
包容	-10.9512
不明白	-10.9514
和服务	-10.9514
更高的	-10.9525
杠杆	-10.9528
外出	-10.9528
修建	-10.953
天赋	-10.9532
澳门	-10.9539
昂	-10.9539
蹲	-10.9542
的道路	-10.9544
导向	-10.9544
还记得	-10.9546
东部	-10.9551
癌	-10.9551
▁李	-10.9552
的管理	-10.9554
水库	-10.9556
两岸	-10.9556
有自己的	-10.9559
的安全	-10.9561
熟练	-10.9562
平行	-10.9565
中国经济	-10.9567
宾馆	-10.9568
灯光	-10.9569
碱	-10.9572
很小	-10.9573
命名	-10.9573
对方的	-10.9574
傲	-10.9574
一类	-10.9577
可靠	-10.9579
放量	-10.958
心思	-10.9583
成熟的	-10.9584
","	-10.9584
▁|	-10.9586
朝廷	-10.9587
抵押	-10.9589
是一位	-10.959
管理人员	-10.9592
狠	-10.9594
精确	-10.9595
依次	-10.96
囊	-10.9602
成效	-10.9603
APP	-10.9603
四处	-10.9604
们的	-10.9606
概率	-10.9607
接口	-10.9608
五行	-10.9608
严格的	-10.9609
服务业	-10.961
演唱	-10.9611
是用	-10.9612
外卖	-10.9613
口感	-10.9613
活动中	-10.9614
演绎	-10.9614
口味	-10.9615
虹	-10.9616
外资	-10.9616
孕	-10.9617
颗粒	-10.9617
洛阳	-10.9618
另外一个	-10.962
在乎	-10.9622
清华大学	-10.9623
吟	-10.9624
响应	-10.9626
结束了	-10.9627
撕	-10.9628
辽	-10.9628
负债	-10.9629
感兴趣	-10.9631
愚	-10.9632
已是	-10.9633
过滤	-10.9633
净化	-10.9635
建筑物	-10.9636
的高度	-10.9636
灶	-10.9637
宏观	-10.9638
发热	-10.964
线条	-10.9641
刘备	-10.9642
仅有	-10.9646
回来了	-10.9647
演奏	-10.9648
同一个	-10.9648
锐	-10.9649
我真的	-10.9649
的灵魂	-10.9651
丧失	-10.9651
没错	-10.9654
持股	-10.9654
吵	-10.9655
这些问题	-10.9655
市级	-10.9655
死后	-10.9657
毫不	-10.9659
一脸	-10.9661
折磨	-10.9662
注入	-10.9663
带给	-10.9668
如来	-10.9669
生育	-10.9669
都不是	-10.9671
巴黎	-10.9672
拯救	-10.9673
一轮	-10.9674
熟悉的	-10.9675
肚	-10.9675
滤	-10.9676
央视	-10.9677
世上	-10.9682
我们需要	-10.9682
出身	-10.9682
一千	-10.9685
史上	-10.9685
握	-10.9686
修订	-10.9688
不允许	-10.9688
自在	-10.969
欧盟	-10.9691
大夫	-10.9692
任职	-10.9695
万平方米	-10.9695
日起	-10.9695
伙伴	-10.9696
择	-10.9696
筛选	-10.9698
毫米	-10.9698
世界杯	-10.9702
当他	-10.9703
走在	-10.9704
面包	-10.9706
的其他	-10.9707
天生	-10.971
卯	-10.9711
回避	-10.9714
注意力	-10.9714
户籍	-10.9716
铃	-10.9716
引起的	-10.9717
社会的	-10.9717
小事	-10.972
同比增长	-10.9724
咏	-10.9724
网页	-10.9724
礼仪	-10.9727
决心	-10.9727
投机	-10.973
社群	-10.9731
蝴蝶	-10.9732
茨	-10.9732
写出	-10.9733
土豆	-10.9738
来临	-10.9739
塑	-10.974
大臣	-10.974
所属	-10.974
低价	-10.9741
充分发挥	-10.9744
就得	-10.9744
瑜伽	-10.9745
发展规划	-10.9745
任意	-10.9746
创立	-10.9746
65	-10.9747
一般是	-10.9747
氢	-10.9747
法学	-10.9748
为什么会	-10.9751
的建议	-10.9752
阔	-10.9754
销售额	-10.9755
的路上	-10.9756
军人	-10.9756
情人	-10.9756
排放	-10.9757
▁5	-10.9759
多少钱	-10.9761
用药	-10.9762
绣	-10.9762
聚会	-10.9763
日均线	-10.9764
眼神	-10.9764
耶稣	-10.9765
al	-10.9766
体质	-10.9767
嗯	-10.9768
首席	-10.9769
立马	-10.9775
的人都	-10.9775
凭证	-10.9777
重心	-10.978
下次	-10.9785
的印象	-10.9786
队长	-10.9788
的理论	-10.9789
着力	-10.9792
挣扎	-10.9793
何时	-10.9793
酒吧	-10.9793
指的是	-10.9794
观赏	-10.9794
盗	-10.9797
标识	-10.9799
幸福的	-10.98
经营者	-10.9802
全民	-10.9804
淘汰	-10.9804
向往	-10.9805
此处	-10.9805
将成为	-10.9805
之情	-10.9805
四十	-10.9806
酶	-10.9807
的成本	-10.9808
和我	-10.981
出自	-10.981
。7	-10.9812
39	-10.9812
不适合	-10.9812
40%	-10.9813
『	-10.9817
美味	-10.9818
第八	-10.9821
焉	-10.9821
60%	-10.9822
其中的	-10.9823
弥	-10.9824
高低	-10.9826
没能	-10.9827
大声	-10.9836
的事实	-10.9836
管理部门	-10.9838
钥匙	-10.9839
一笑	-10.9839
相遇	-10.9841
一共	-10.9845
膏	-10.9845
券	-10.9848
友谊	-10.9851
第三个	-10.9852
后台	-10.9854
顿时	-10.9854
把自己的	-10.9855
必要	-10.9859
掌控	-10.9859
见证	-10.9862
节能	-10.9862
安心	-10.9867
她在	-10.9868
侵犯	-10.9871
不信	-10.9874
这才是	-10.9878
小孩子	-10.9878
的话题	-10.9878
转化为	-10.9879
实在是	-10.9881
姬	-10.9884
失误	-10.9885
前行	-10.9888
独立的	-10.9888
惜	-10.9889
冰箱	-10.9889
方针	-10.989
大厅	-10.989
的操作	-10.9892
°	-10.9893
的条件	-10.9896
听力	-10.99
口腔	-10.9901
绝不	-10.9901
的真实	-10.9902
警告	-10.9903
浏览	-10.9905
锤	-10.9905
评选	-10.9905
背后的	-10.9906
他又	-10.9908
几百	-10.9908
存在着	-10.9914
维度	-10.9915
巢	-10.9917
就应该	-10.992
变为	-10.992
爹	-10.9923
地处	-10.9924
上门	-10.9925
整天	-10.9926
昆	-10.9927
管理和	-10.9927
历史的	-10.9928
的使用	-10.9929
邱	-10.9929
文书	-10.9931
体现了	-10.9933
就成了	-10.9934
抛弃	-10.9937
占用	-10.9937
出租车	-10.9938
是通过	-10.9941
默默	-10.9942
天上	-10.9942
比较多	-10.9942
桥梁	-10.9943
首先是	-10.9943
南部	-10.9946
储存	-10.9947
做出了	-10.995
瀑布	-10.9956
天然气	-10.9963
#	-10.9965
际	-10.997
终点	-10.997
栏目	-10.9972
温和	-10.9974
归纳	-10.9977
查处	-10.9978
骑士	-10.998
09	-10.9981
盈	-10.9983
局面	-10.9986
慢慢地	-10.9988
精致	-10.9988
答题	-10.9988
论证	-10.999
教堂	-10.9992
行李	-10.9993
清算	-10.9996
女友	-10.9998
报价	-10.9999
首批	-11
标准的	-11
小于	-11.0002
院长	-11.0009
的最佳	-11.001
运营商	-11.001
确实是	-11.0013
建筑面积	-11.0017
要学会	-11.0017
当做	-11.0018
老虎	-11.0019
口罩	-11.0021
密封	-11.0023
巡	-11.0024
少量	-11.0026
高血压	-11.0028
医师	-11.0032
稳定的	-11.0035
间接	-11.0036
的重点	-11.0037
爱上	-11.0037
有利	-11.0037
专辑	-11.004
亲切	-11.0043
42	-11.0045
中小学	-11.0049
导游	-11.0049
钦	-11.0051
学期	-11.0051
看法	-11.0052
遣	-11.0052
清朝	-11.0053
纳税	-11.0055
一流	-11.0059
清净	-11.006
学到	-11.006
老鼠	-11.0061
只是一个	-11.0061
年内	-11.0065
窗户	-11.0066
特斯拉	-11.0068
商量	-11.0069
的记忆	-11.0072
热水	-11.0073
计量	-11.0073
吻	-11.0074
自卑	-11.0076
管理制度	-11.0078
派出所	-11.0079
的战略	-11.0083
饶	-11.0084
船舶	-11.0086
an	-11.0088
户外	-11.0088
缩小	-11.0088
食堂	-11.0088
的文字	-11.0088
干预	-11.009
市场份额	-11.0092
幻	-11.0096
的身影	-11.0097
的出现	-11.0098
芝	-11.0102
失眠	-11.0102
担	-11.0103
描绘	-11.0106
自愿	-11.0108
修正	-11.0109
卒	-11.0109
了自己	-11.0109
讲座	-11.011
制约	-11.0111
并不能	-11.0114
两边	-11.0115
相对于	-11.0116
教导	-11.0116
萝卜	-11.0118
举措	-11.0118
』	-11.0119
要比	-11.012
也是一种	-11.0123
能力和	-11.0125
摆放	-11.0126
公子	-11.0126
直销	-11.0126
身体健康	-11.0127
倾听	-11.0129
春秋	-11.0129
炖	-11.0129
叔叔	-11.0131
无疑是	-11.0131
告别	-11.0131
高山	-11.0132
湖北省	-11.0133
分公司	-11.0135
已经有	-11.0135
守护	-11.0135
有能力	-11.0136
杀死	-11.0137
蟹	-11.0137
IT	-11.0138
爸爸妈妈	-11.0139
保密	-11.0142
出租	-11.0143
高科技	-11.0144
笑着	-11.0145
还将	-11.0145
跨越	-11.0149
不及	-11.0149
口语	-11.0152
姐妹	-11.0155
的品牌	-11.0157
年轻的	-11.0157
裙	-11.0159
就需要	-11.0159
亲爱的	-11.0161
的前提下	-11.0162
甜蜜	-11.0163
留学生	-11.0164
不知不觉	-11.0165
十七	-11.0167
帆	-11.0167
交通运输	-11.0169
在我的	-11.017
循	-11.0171
中级	-11.0171
业内	-11.0172
收回	-11.0172
对她	-11.0172
信用卡	-11.0173
可以让	-11.0173
崇拜	-11.0176
近代	-11.0176
〕	-11.0177
券商	-11.0177
不该	-11.0177
不顾	-11.0178
往往会	-11.0179
污水	-11.0179
原谅	-11.0179
捡	-11.0183
奖学金	-11.0184
健康的	-11.0187
让大家	-11.019
遮	-11.0191
cm	-11.0192
畅	-11.0193
柄	-11.0194
深处	-11.0194
:00	-11.0194
不禁	-11.0195
做题	-11.0196
收缩	-11.0197
07	-11.0199
北部	-11.0199
泻	-11.02
滞	-11.0202
造成了	-11.0203
法人	-11.0203
原件	-11.0204
Z	-11.0205
可持续	-11.0205
按规定	-11.0206
工商	-11.0206
小程序	-11.0209
床上	-11.021
美人	-11.021
指示	-11.0211
高管	-11.0211
原有	-11.0215
分明	-11.0217
日内	-11.0219
做饭	-11.0224
的数量	-11.0227
队友	-11.0227
▁张	-11.0228
组织的	-11.0228
弘扬	-11.0228
的能量	-11.0228
你需要	-11.0228
疯	-11.0229
。8	-11.023
对照	-11.023
娟	-11.0232
拾	-11.0233
新兴	-11.0235
单身	-11.0236
语法	-11.0237
牛市	-11.0238
党委	-11.0238
组成部分	-11.0239
碰撞	-11.0242
为大家	-11.0242
的整体	-11.0245
分管	-11.0247
导航	-11.025
三星	-11.025
没有办法	-11.025
保温	-11.0251
ch	-11.0252
的认知	-11.0254
外语	-11.0255
寿命	-11.0256
做不到	-11.0256
之事	-11.0257
级别的	-11.0259
增多	-11.0261
全区	-11.0262
一头	-11.0263
很喜欢	-11.0264
抵抗	-11.0265
堤	-11.0267
前途	-11.0268
三国	-11.0271
为我们	-11.0273
可以把	-11.0276
编剧	-11.0277
适当的	-11.0279
涉嫌	-11.0279
在他的	-11.0281
树木	-11.0281
差点	-11.0281
友情	-11.0281
躺在	-11.0283
几何	-11.0284
份额	-11.0284
陷	-11.029
打通	-11.0291
厨	-11.0292
愿望	-11.0295
不被	-11.0297
瑶	-11.0297
叶子	-11.0298
夸张	-11.0298
象征	-11.0298
会使	-11.0301
你觉得	-11.0305
朵	-11.0308
过年	-11.0309
隧道	-11.0313
肘	-11.0314
课本	-11.0315
华夏	-11.0317
一门	-11.0318
or	-11.0319
电缆	-11.0319
非常好	-11.0321
洗澡	-11.0322
动手	-11.0327
希望能	-11.0328
微微	-11.0329
抬头	-11.0329
脑袋	-11.033
我个人	-11.0332
点赞	-11.0333
会让你	-11.0333
大自然	-11.0334
缠	-11.0336
堪称	-11.0336
中国特色	-11.0337
地带	-11.0338
主编	-11.0349
多名	-11.0357
更快	-11.036
身为	-11.0361
东风	-11.0361
瑟	-11.0362
喻	-11.0363
贫穷	-11.0364
万一	-11.0365
震惊	-11.0366
聘	-11.0366
坠	-11.0366
约翰	-11.0371
指令	-11.0371
超出	-11.0371
有效地	-11.0372
拌	-11.0376
完全可以	-11.0383
就不能	-11.0384
文化的	-11.0385
本周	-11.0386
的传统	-11.039
原材料	-11.0399
所有人都	-11.04
奖金	-11.0403
腹部	-11.0408
地板	-11.0408
等方式	-11.041
轮回	-11.0415
邑	-11.0416
联动	-11.0417
人际关系	-11.0421
疑惑	-11.0421
注射	-11.0423
58	-11.0423
在其	-11.0425
琼	-11.0427
学会了	-11.0427
细心	-11.0428
不堪	-11.0429
岁时	-11.0429
管理局	-11.0431
的智慧	-11.0431
液体	-11.0434
童话	-11.0436
吞	-11.0437
穷人	-11.044
遥	-11.044
挥	-11.0441
笑话	-11.0441
挨	-11.0442
一间	-11.0442
焊接	-11.0443
少许	-11.0443
才可以	-11.0443
相关部门	-11.0443
生日	-11.0445
温馨	-11.0446
收益率	-11.0446
就越	-11.0447
目的地	-11.0453
夜晚	-11.0455
兰州	-11.0458
未经	-11.046
取出	-11.0461
聘用	-11.0462
智商	-11.0462
心中的	-11.0462
暂停	-11.0462
误区	-11.0462
趁	-11.0463
第一名	-11.0465
的音乐	-11.0466
过往	-11.0467
附加	-11.0467
请你	-11.0469
放置	-11.0471
哭了	-11.0472
必定	-11.0472
已被	-11.0473
不可以	-11.0475
合法权益	-11.0476
廊	-11.0478
上面的	-11.0478
原来的	-11.0479
总有	-11.048
削	-11.0484
澳洲	-11.0486
澄	-11.0486
提倡	-11.0489
万美元	-11.0492
的交易	-11.0492
耕	-11.0492
坐着	-11.0493
完毕	-11.0494
太极	-11.0494
攻略	-11.0494
出货	-11.0497
东南亚	-11.0498
定向	-11.05
养老保险	-11.0501
往来	-11.0503
可怕	-11.0504
有趣的	-11.0507
汉字	-11.0507
平原	-11.0507
可以直接	-11.0508
压抑	-11.051
肯定会	-11.051
700	-11.051
体积	-11.051
应付	-11.0511
捕	-11.0513
证监会	-11.0514
逗	-11.0518
活动的	-11.0518
比较好	-11.0519
商城	-11.0521
肿	-11.0521
贯彻	-11.0521
希腊	-11.0522
做的事情	-11.0524
密切	-11.0524
难受	-11.0525
勉强	-11.0526
经络	-11.053
拱	-11.0533
可以从	-11.0533
穴位	-11.0535
每个月	-11.0536
圈子	-11.0536
理智	-11.0539
找个	-11.054
所在的	-11.0541
为什么不	-11.0545
明朝	-11.0545
郊	-11.0549
95	-11.0549
喉	-11.055
问题是	-11.0551
美军	-11.0551
夜间	-11.0554
大城市	-11.0555
这一天	-11.0555
作了	-11.0557
样本	-11.0561
流失	-11.0565
全方位	-11.0565
入住	-11.0569
酒精	-11.0572
”(	-11.0572
的答案	-11.0573
颂	-11.0574
随即	-11.0575
恶意	-11.0577
得分	-11.0578
之意	-11.0579
1997	-11.0583
歪	-11.0583
的根本	-11.0589
的目光	-11.0594
有意	-11.0599
万里	-11.06
刑法	-11.0601
这套	-11.0602
不开	-11.0603
水质	-11.0604
甘肃	-11.0605
是一家	-11.0609
极度	-11.0609
带上	-11.0609
各部门	-11.061
这是一种	-11.0616
问他	-11.0616
爪	-11.0616
押	-11.0618
先天	-11.0619
夷	-11.062
及其他	-11.062
心疼	-11.0622
歇	-11.0623
人民群众	-11.0623
几位	-11.0623
美联储	-11.0624
注定	-11.0626
身边的	-11.0629
占领	-11.063
书店	-11.0631
用水	-11.0633
内存	-11.0637
喜剧	-11.0638
分泌	-11.0638
的增长	-11.0643
过高	-11.0644
不好意思	-11.0645
姿势	-11.0645
不让	-11.0646
离子	-11.0648
激素	-11.0648
美的	-11.0648
能做到	-11.0649
赞美	-11.065
直线	-11.0653
看到的	-11.0654
辽宁	-11.0655
安徽省	-11.0658
联络	-11.0659
相连	-11.0661
征服	-11.0661
水面	-11.0662
珍珠	-11.0662
)》	-11.0665
门外	-11.0665
观音	-11.0665
机动车	-11.0667
至此	-11.0668
诱惑	-11.0669
总书记	-11.0669
雷达	-11.0669
会觉得	-11.0672
饿	-11.0672
顶尖	-11.0673
太太	-11.0677
便秘	-11.068
挣钱	-11.068
遗传	-11.0681
抚	-11.0682
愉快	-11.0686
豫	-11.0687
忠诚	-11.0688
中小	-11.0688
以内	-11.069
也曾	-11.0692
领导小组	-11.0693
内心的	-11.0693
43	-11.0696
太空	-11.0697
六年	-11.0697
时期的	-11.07
治病	-11.0703
釉	-11.0703
4000	-11.0705
恐	-11.0707
高三	-11.0708
当然是	-11.0709
佛陀	-11.0712
他们是	-11.0713
试卷	-11.0716
叙述	-11.0716
司马	-11.0721
了出来	-11.0721
彦	-11.0723
切成	-11.0724
庞大的	-11.0724
的女孩	-11.0727
阶	-11.073
该如何	-11.073
的程度	-11.0733
李白	-11.0733
两国	-11.0734
的相关	-11.0735
俞	-11.0736
立足	-11.0737
庞	-11.0738
目光	-11.0738
蝶	-11.0738
通报	-11.0738
列入	-11.0739
炒股	-11.0739
都会有	-11.0741
能看到	-11.0741
厚度	-11.0741
一个人的	-11.0743
改编	-11.0743
得意	-11.0745
生于	-11.0746
督促	-11.0746
乐队	-11.0747
不是很	-11.0747
阻力	-11.075
直径	-11.0751
纪录	-11.0758
较高的	-11.0758
备用	-11.076
这部分	-11.0761
长远	-11.0762
优雅	-11.0763
原告	-11.0765
想去	-11.0765
就行了	-11.0766
说服	-11.0767
参赛	-11.0767
大楼	-11.0768
女神	-11.0768
格外	-11.077
为中心	-11.077
同样是	-11.0773
汇总	-11.0773
研究员	-11.0774
配方	-11.0776
的理想	-11.0776
匆匆	-11.0777
分裂	-11.0778
海水	-11.0782
学生们	-11.0786
传达	-11.0786
含义	-11.0787
即便是	-11.0787
好吃	-11.0791
如果我	-11.0791
总理	-11.0792
仍在	-11.0792
店里	-11.0795
裕	-11.0797
侍	-11.0797
全国各地	-11.0798
推出了	-11.0799
茅	-11.0805
爸	-11.0807
鲜花	-11.0809
水晶	-11.0809
耳机	-11.081
自学	-11.0812
帽子	-11.0812
有必要	-11.0814
上映	-11.0816
秘书	-11.0818
百分之	-11.0819
血糖	-11.082
当地的	-11.0821
说他	-11.0821
建设项目	-11.0821
二年	-11.0824
血压	-11.0828
信誉	-11.0829
过渡	-11.0829
供养	-11.0829
05	-11.0831
绍	-11.0833
仍是	-11.0833
部长	-11.0834
合约	-11.0835
温州	-11.0839
暂	-11.0844
自动驾驶	-11.0848
拥	-11.085
痕迹	-11.0851
为准	-11.0853
呈现出	-11.0855
我们现在	-11.0858
额外	-11.0859
侵权	-11.086
提及	-11.0865
第一步	-11.0865
不来	-11.0866
的动力	-11.0868
的第一个	-11.087
火灾	-11.0871
的思维	-11.0871
我看	-11.0872
但我们	-11.0874
有很大	-11.0874
都不能	-11.0875
股份有限	-11.0878
全都	-11.088
悲剧	-11.088
系数	-11.0882
倾斜	-11.0883
新手	-11.0886
示	-11.0887
升高	-11.089
流畅	-11.0891
崩	-11.0892
力气	-11.0895
面上	-11.0898
珍贵	-11.0898
不再是	-11.0899
一本书	-11.0902
蜂	-11.0904
接纳	-11.091
这篇	-11.091
签字	-11.0911
被誉为	-11.0912
下行	-11.0912
落在	-11.0914
果断	-11.0915
头痛	-11.0915
粤	-11.0915
还未	-11.0915
溜	-11.0917
的主题	-11.092
▁王	-11.092
进场	-11.0921
每一位	-11.0921
的回答	-11.0922
前的	-11.0925
附属	-11.0926
很明显	-11.0926
恭	-11.0926
携手	-11.0927
的老师	-11.0928
陌生人	-11.093
担忧	-11.0931
大概是	-11.0933
绘	-11.0936
或其他	-11.0936
球迷	-11.0937
叉	-11.0937
有限责任	-11.0937
第一位	-11.0938
会影响	-11.0939
猪肉	-11.0939
型的	-11.0945
我们是	-11.0946
脆	-11.0947
警惕	-11.0947
外汇	-11.0947
吐槽	-11.0948
的大小	-11.0949
ing	-11.095
已经开始	-11.095
这段时间	-11.0951
子公司	-11.0951
一所	-11.0952
先锋	-11.0954
引擎	-11.0955
进出口	-11.0956
ic	-11.0956
上传	-11.0957
持久	-11.0958
诸如	-11.0964
番	-11.0967
加重	-11.0969
滨	-11.097
红包	-11.0972
会造成	-11.0973
试试	-11.0973
酉	-11.0975
花生	-11.0976
上半年	-11.0976
拆迁	-11.0981
各有	-11.0981
媒	-11.0981
的心灵	-11.0982
吉祥	-11.0984
低调	-11.0984
指引	-11.0989
话说	-11.0989
车子	-11.099
同比	-11.0991
听着	-11.0992
却不	-11.0992
而我	-11.0992
亲情	-11.0992
对我说	-11.0993
服饰	-11.0994
不可思议	-11.0994
笨	-11.0996
伴侣	-11.0998
赶到	-11.0998
的业务	-11.1
说得	-11.1001
变现	-11.1001
全家	-11.1002
哈尔滨	-11.1003
更能	-11.1005
和她	-11.1006
咋	-11.1009
就此	-11.1009
1996	-11.101
人类的	-11.1011
资本主义	-11.1012
汇率	-11.1013
的模式	-11.1013
男主	-11.1016
职称	-11.1017
发展趋势	-11.1017
七年	-11.102
操纵	-11.102
钓	-11.1021
通行	-11.1022
渠	-11.1022
荣耀	-11.1023
诸葛亮	-11.1023
高原	-11.1025
没有了	-11.1028
颇	-11.1028
心底	-11.1028
包裹	-11.1032
航班	-11.1034
旦	-11.1035
男友	-11.1036
多多	-11.1037
配件	-11.1037
写下	-11.1038
数额	-11.1038
你必须	-11.1039
阿尔	-11.1039
庆祝	-11.104
为基础	-11.1042
容器	-11.1042
衔接	-11.1043
尽力	-11.1044
地形	-11.1046
折腾	-11.1048
副作用	-11.1049
这意味着	-11.105
办事处	-11.105
磊	-11.1053
批判	-11.1055
看重	-11.1055
富裕	-11.1058
准备好	-11.1058
被评为	-11.1058
均有	-11.1059
发了	-11.1061
气温	-11.1063
太平洋	-11.1063
伍	-11.1065
鞋子	-11.1065
饲料	-11.1067
我从	-11.1067
的痛苦	-11.1069
地方政府	-11.1069
我市	-11.1072
冥	-11.1074
半夜	-11.1076
设计的	-11.1077
悄悄	-11.1078
笑了	-11.1084
是这样	-11.1084
当今	-11.1087
用自己的	-11.1088
吼	-11.1089
倾向	-11.1093
阵容	-11.1093
局长	-11.1094
去掉	-11.1094
我可以	-11.1096
感应	-11.1096
神仙	-11.1097
发电	-11.1099
至关重要	-11.1099
合作社	-11.11
好人	-11.1102
业界	-11.1104
雕塑	-11.1104
却在	-11.1104
离职	-11.1105
祛斑	-11.1106
一小	-11.1107
县级	-11.1109
水准	-11.1109
往下	-11.111
就行	-11.111
几十年	-11.1111
忍受	-11.1111
怎么做	-11.1113
起来了	-11.1113
开业	-11.1115
清晨	-11.1115
天猫	-11.1115
发掘	-11.1116
隐私	-11.1117
发力	-11.1117
工会	-11.1118
提名	-11.1119
剩余	-11.1121
的用户	-11.1124
结尾	-11.1124
已经在	-11.1124
之家	-11.1126
权重	-11.1127
二战	-11.1128
重重	-11.1129
炒作	-11.1131
卧室	-11.1132
引起了	-11.1135
中国市场	-11.1135
牌子	-11.1138
的政策	-11.1142
我心里	-11.1142
新年	-11.1144
管理层	-11.1145
看出	-11.1145
无知	-11.1145
火车站	-11.1146
就这么	-11.1147
我有	-11.1149
所需的	-11.1153
的错误	-11.1155
历代	-11.1156
人人都	-11.1156
发达国家	-11.1159
六个	-11.1162
字母	-11.1165
了我的	-11.1166
反射	-11.1173
骨干	-11.1173
大批	-11.1174
门前	-11.1175
思念	-11.1175
代价	-11.1176
残疾人	-11.1176
山顶	-11.1181
顺便	-11.1181
时间内	-11.1183
也开始	-11.1183
出色	-11.1184
翘	-11.1185
的客户	-11.1186
三级	-11.1187
不同于	-11.1188
和管理	-11.1193
动机	-11.1199
搓	-11.12
纺织	-11.1201
灰色	-11.1202
学习的	-11.1203
劳务	-11.1203
状元	-11.1205
国企	-11.1205
44	-11.1205
电气	-11.1206
桌子	-11.1206
促销	-11.1207
外地	-11.1208
财政部	-11.1208
沙滩	-11.1209
行人	-11.121
扭	-11.1212
允	-11.1216
删	-11.1216
袖	-11.1216
46	-11.1217
生效	-11.1218
的水平	-11.122
的人们	-11.122
城市的	-11.1221
底下	-11.1221
细分	-11.1221
支援	-11.1224
上师	-11.1225
很久	-11.1227
额度	-11.1229
伐	-11.1229
很低	-11.1231
是自己	-11.1231
谁都	-11.1231
浑身	-11.1232
吵架	-11.1235
林业	-11.1235
作风	-11.1235
人才培养	-11.1236
专注于	-11.1236
圆形	-11.1237
的实际	-11.1239
往事	-11.124
关键是	-11.1241
硅	-11.1241
徽	-11.1248
观测	-11.1248
红利	-11.125
动脉	-11.1252
台上	-11.1253
56	-11.1253
起伏	-11.1253
选拔	-11.1256
就去	-11.1257
毛病	-11.1257
47	-11.1258
致使	-11.1259
本市	-11.1259
登上	-11.1262
也可能	-11.1262
道具	-11.1263
而去	-11.1263
只剩下	-11.1265
坏了	-11.1266
的需要	-11.1268
锁定	-11.1268
本会	-11.1268
低头	-11.1268
溢	-11.1271
精选	-11.1272
零食	-11.1273
同情	-11.1276
不适	-11.1277
加深	-11.1278
廖	-11.1283
辨	-11.1285
的解释	-11.1286
阅	-11.1288
车主	-11.1289
岂	-11.1289
争夺	-11.129
公布的	-11.129
就像是	-11.1291
渝	-11.1291
所致	-11.1291
谷歌	-11.1291
诗词	-11.1293
确立	-11.1293
标的	-11.1293
白云	-11.1294
兔子	-11.1295
大学的	-11.1295
乐器	-11.1297
品牌的	-11.1297
拒	-11.13
风吹	-11.1303
为主的	-11.1303
这几年	-11.1304
媒介	-11.1306
篮	-11.1306
比我	-11.1308
雕刻	-11.1309
少数民族	-11.1312
凌晨	-11.1312
丢失	-11.1315
均可	-11.1315
甲方	-11.1318
的电影	-11.1319
的课程	-11.1319
茎	-11.1319
首届	-11.132
演变	-11.1322
康熙	-11.1323
闯	-11.1324
因果	-11.1324
经济增长	-11.1324
名义	-11.1324
寡	-11.1324
服从	-11.1324
的概率	-11.1326
日上午	-11.1327
专业技术	-11.1328
我希望	-11.1328
社会保险	-11.1328
苦难	-11.1329
后面的	-11.1329
驴	-11.1332
简洁	-11.1333
的表情	-11.1333
难免	-11.1341
上演	-11.1345
回落	-11.1347
调剂	-11.1347
笛	-11.1347
之战	-11.1348
上看	-11.1348
热量	-11.1351
动员	-11.1351
仍然是	-11.1358
入侵	-11.1362
网易	-11.1362
薪	-11.1364
就知道	-11.1364
二十年	-11.1366
忘记了	-11.1366
封建	-11.1366
翡翠	-11.1369
市场经济	-11.1369
大街	-11.1369
年级	-11.1369
煞	-11.1371
步入	-11.1371
监督检查	-11.1372
名叫	-11.1372
并无	-11.1373
2-3	-11.1374
便会	-11.1375
商贸	-11.1375
服务中心	-11.1377
衡	-11.1378
游玩	-11.1378
小人	-11.1379
充分利用	-11.1382
永不	-11.1382
租房	-11.1383
淋	-11.1384
香味	-11.1384
有不少	-11.1386
的手段	-11.1387
授课	-11.1387
▁a	-11.139
亥	-11.1391
都已经	-11.1391
遗产	-11.1392
两家	-11.1394
熬夜	-11.1395
细致	-11.1395
外贸	-11.1396
必有	-11.1396
海鲜	-11.1398
严谨	-11.1401
河北省	-11.1401
署	-11.1402
仓位	-11.1403
不停	-11.1405
一个大	-11.1407
腕	-11.1408
再一次	-11.1408
先行	-11.1411
乾隆	-11.1412
禾	-11.1412
情景	-11.1414
都是在	-11.1415
得好	-11.1417
惊讶	-11.1417
证件	-11.1418
有几个	-11.1418
联邦	-11.1419
猜测	-11.1419
产品质量	-11.1423
实物	-11.1424
审理	-11.1425
博弈	-11.1427
牡丹	-11.1428
表述	-11.1428
复印件	-11.1429
手臂	-11.143
慢慢的	-11.143
缺失	-11.143
变量	-11.1434
排出	-11.1435
一顿	-11.1441
介绍了	-11.1442
据了解	-11.1444
攀	-11.1447
夜里	-11.1448
坦	-11.1449
窗外	-11.1453
债权	-11.1454
会把	-11.1455
帘	-11.1455
怎么能	-11.1457
下车	-11.1459
的场景	-11.1461
说实话	-11.1462
脚下	-11.1462
但它	-11.1462
也无法	-11.1464
搅拌	-11.1465
不只是	-11.1466
捐	-11.1467
近几年	-11.1468
说自己	-11.1468
的教学	-11.1468
模具	-11.1469
目前的	-11.1469
后人	-11.1469
制成	-11.1469
管辖	-11.1471
属于自己	-11.1471
民营企业	-11.1472
事儿	-11.1474
下班	-11.1476
文人	-11.1476
扩散	-11.1477
肥胖	-11.1479
彩色	-11.1479
辈	-11.1484
文中	-11.1485
论述	-11.1485
就意味着	-11.1486
几乎是	-11.1486
花卉	-11.149
巾	-11.149
有害	-11.1491
对我们	-11.1493
增值	-11.1494
固定资产	-11.1494
生产力	-11.1498
8%	-11.1498
自己喜欢	-11.1499
子孙	-11.1499
愉悦	-11.15
长寿	-11.15
开工	-11.1501
之所	-11.1501
全球化	-11.1502
乐趣	-11.1502
场面	-11.1502
农户	-11.1504
06	-11.1505
红军	-11.1506
课堂教学	-11.1507
鞭	-11.1508
外形	-11.1508
我没	-11.1511
的情形	-11.1511
爵	-11.1511
冲动	-11.1512
换了	-11.1514
还真	-11.1515
试题	-11.1516
处分	-11.1516
常年	-11.1516
科技创新	-11.1517
深夜	-11.1518
快速发展	-11.1518
掌握了	-11.152
壬	-11.1522
表现为	-11.1524
在做	-11.1526
脑子	-11.1526
包围	-11.1528
蚂蚁	-11.1528
没了	-11.153
分析师	-11.1533
反映了	-11.1533
谈论	-11.1534
争论	-11.1535
邵	-11.1537
1500	-11.1537
不仅仅	-11.1538
我们应该	-11.1539
的工具	-11.154
共计	-11.1542
中部	-11.1543
一个重要	-11.1543
远方	-11.1544
着手	-11.1546
东莞	-11.1546
并对	-11.1547
风味	-11.1548
伊朗	-11.1549
都将	-11.155
一心	-11.155
▁根据	-11.1551
农场	-11.1552
日下午	-11.1554
累积	-11.1555
的眼神	-11.1559
否认	-11.156
为代表的	-11.156
国土	-11.1562
譬如	-11.1564
理想的	-11.1566
过敏	-11.157
se	-11.1571
旨在	-11.1575
欺负	-11.1576
88	-11.1576
主人公	-11.1577
看待	-11.1578
硕	-11.1579
较少	-11.158
活得	-11.158
买进	-11.1581
哉	-11.1585
lo	-11.159
多项	-11.159
观光	-11.1591
教训	-11.1595
从容	-11.1596
扩	-11.16
在日本	-11.16
为了让	-11.1601
表格	-11.1601
一般人	-11.1602
更多的是	-11.1607
再用	-11.1608
有两种	-11.1608
避开	-11.1608
的评价	-11.1613
部件	-11.1613
本能	-11.1616
人都	-11.1616
澳	-11.1619
腐	-11.1621
约为	-11.1622
界的	-11.1622
试着	-11.1623
疲惫	-11.1627
台阶	-11.1628
奖项	-11.1632
绒	-11.1635
拿来	-11.1636
的秘密	-11.1637
艺术品	-11.1639
丛	-11.1641
无量	-11.1641
探究	-11.1641
贯穿	-11.1643
灵感	-11.1644
栽培	-11.1646
紧紧	-11.1647
以其	-11.1647
核算	-11.165
副主席	-11.1651
不予	-11.1651
就在于	-11.1658
左边	-11.1658
如有	-11.166
考点	-11.1663
禹	-11.1663
太多了	-11.1663
要不要	-11.1665
他们会	-11.1666
实业	-11.1668
以前的	-11.1668
趋	-11.1669
咽	-11.1671
击败	-11.1672
缺口	-11.1674
元年	-11.1674
层层	-11.1675
死去	-11.1675
同类	-11.1676
婉	-11.1677
技术的	-11.1679
到期	-11.168
要说	-11.1681
的商品	-11.1683
纪录片	-11.1683
片区	-11.1686
技术和	-11.1686
妄	-11.169
误解	-11.169
还有一些	-11.1694
的决定	-11.1696
巳	-11.1696
拉着	-11.1696
高等教育	-11.1697
如果您	-11.17
她就	-11.1702
的到来	-11.1703
钢筋	-11.1705
原油	-11.1705
县政府	-11.1707
很重要的	-11.1712
必将	-11.1712
能力的	-11.1713
况	-11.1714
也是一个	-11.1718
峡	-11.1718
过大	-11.1719
拓	-11.1719
无不	-11.172
座位	-11.1721
离去	-11.1722
与之	-11.1723
困扰	-11.1724
耍	-11.1727
6%	-11.173
文案	-11.1732
意愿	-11.1732
常用的	-11.1737
养老金	-11.1739
公交车	-11.174
膨胀	-11.1742
道教	-11.1742
对付	-11.1746
董事	-11.1747
暨	-11.1747
乐园	-11.1749
的局面	-11.175
精灵	-11.1751
以色列	-11.1752
古镇	-11.1752
钉	-11.1752
苏宁	-11.1756
婴	-11.1757
留意	-11.176
会对	-11.176
日至	-11.176
追逐	-11.1761
不含	-11.1767
宋代	-11.1768
明月	-11.1768
的人物	-11.1769
交易者	-11.1769
绝大部分	-11.1771
戳	-11.1772
我能	-11.1776
科学的	-11.1776
社会发展	-11.1777
有一点	-11.1779
截止	-11.178
管控	-11.1783
三千	-11.1785
新产品	-11.1785
你有	-11.1786
鲁迅	-11.1786
右侧	-11.1787
一次次	-11.1787
肝脏	-11.179
停车场	-11.1798
分割	-11.1799
吸引了	-11.1799
扎实	-11.18
名片	-11.18
晚会	-11.1801
制订	-11.1802
毫	-11.1808
了他的	-11.1808
环境下	-11.181
我的心	-11.181
把她	-11.181
旨	-11.1811
依然是	-11.1814
这一年	-11.1815
最早的	-11.1816
怀念	-11.1819
纯粹	-11.182
痴	-11.1825
癸	-11.1825
就没	-11.1826
航天	-11.1828
小吃	-11.1828
倚	-11.1829
欺	-11.1829
高档	-11.1831
激	-11.1832
剥	-11.1833
铅	-11.1833
夕	-11.1836
之气	-11.1837
嘴巴	-11.1837
最后一	-11.1837
做到了	-11.1838
一家人	-11.1841
部落	-11.1842
戊	-11.1843
比特币	-11.1844
蓬	-11.1846
三分	-11.1847
在她	-11.1848
闸	-11.1849
十万	-11.185
我校	-11.185
不分	-11.1851
碟	-11.1856
忆	-11.1856
杉	-11.1857
党组织	-11.1858
拿出来	-11.1859
来回	-11.1861
上天	-11.1861
完全是	-11.1862
年以上	-11.1862
推理	-11.1863
溶	-11.1863
二等奖	-11.1864
颖	-11.1864
微软	-11.1864
故乡	-11.1865
》:	-11.1865
两只	-11.1869
客户的	-11.1871
籽	-11.1871
重庆市	-11.1872
得到的	-11.1873
客运	-11.1874
开户	-11.1874
应在	-11.1876
永远是	-11.1876
春风	-11.1876
医疗机构	-11.1877
学家	-11.1879
一行	-11.1879
优美	-11.188
两点	-11.1881
我不是	-11.1884
笑容	-11.1886
良心	-11.1887
哄	-11.1888
目的是	-11.1889
火星	-11.189
最重要	-11.1891
外来	-11.1893
品尝	-11.1895
房企	-11.1895
的背后	-11.1899
为我	-11.19
卫生间	-11.19
纲	-11.1905
火山	-11.1906
卜	-11.1906
防控	-11.1907
骗子	-11.1908
轿车	-11.1908
独家	-11.1909
亲子	-11.1912
简化	-11.1914
的职业	-11.1914
刘邦	-11.1914
阵地	-11.1916
联合会	-11.1922
停留	-11.1926
爱的	-11.1927
剂量	-11.1927
兑	-11.1927
商业银行	-11.1928
基本面	-11.1928
第九	-11.193
欢喜	-11.1934
买点	-11.1938
漏洞	-11.1943
类似于	-11.1943
内在	-11.1944
49	-11.1947
条件的	-11.1951
繁	-11.1951
阿弥陀佛	-11.1955
效力	-11.1955
脾胃	-11.1956
顶部	-11.1956
外国人	-11.1959
的工资	-11.196
姨	-11.1963
病例	-11.1964
坟	-11.1966
只有在	-11.1966
之初	-11.1967
启示	-11.1969
难得	-11.197
公关	-11.197
一个新的	-11.197
勃	-11.1972
散步	-11.1973
本办法	-11.1975
十几年	-11.1975
豹	-11.1977
先是	-11.198
冈	-11.198
相传	-11.1982
罚款	-11.1984
淮	-11.1984
之后的	-11.1985
的电话	-11.1986
横向	-11.1987
楼梯	-11.1987
稻	-11.1988
难点	-11.1988
蕾	-11.1989
题型	-11.1989
坚信	-11.199
便捷	-11.199
口中	-11.1991
食材	-11.1991
陕西省	-11.1993
特意	-11.1993
98	-11.1994
调度	-11.1994
氮	-11.1994
师兄	-11.1995
的风格	-11.1997
这么说	-11.1997
360	-11.2001
医疗保险	-11.2002
谈谈	-11.2003
是最好的	-11.2004
里有	-11.2007
世俗	-11.2009
左侧	-11.2009
主要原因	-11.2009
不舒服	-11.2011
迁移	-11.2011
立场	-11.2013
袭	-11.2013
转动	-11.2014
想办法	-11.2016
奥运	-11.2017
多为	-11.2019
不出来	-11.2019
通过对	-11.202
四种	-11.202
?”“	-11.2021
跪	-11.2021
穿上	-11.2021
最基本的	-11.2022
酱油	-11.2022
的魅力	-11.2023
数据分析	-11.2023
六十	-11.2026
的定义	-11.2027
眠	-11.2031
我开始	-11.2031
实际上是	-11.2032
商会	-11.2034
的考生	-11.2034
旱	-11.2035
写得	-11.2036
中美	-11.2037
刑事	-11.204
自有	-11.204
孕妇	-11.2041
忽视	-11.2042
xx	-11.2045
自豪	-11.2045
平台上	-11.2047
量化	-11.2049
百货	-11.2049
可爱的	-11.2049
加强对	-11.2049
共鸣	-11.2049
行政部门	-11.205
的范围	-11.2051
反抗	-11.2052
的年轻人	-11.2053
公元前	-11.2056
剩	-11.2056
浸泡	-11.2057
狱	-11.2057
西瓜	-11.2058
何处	-11.206
转基因	-11.206
的幸福	-11.2063
当场	-11.2063
搜集	-11.2063
-1	-11.2064
文科	-11.2065
ma	-11.2067
85	-11.2071
来看看	-11.2072
螺旋	-11.2072
跟我说	-11.2072
的路	-11.2073
如果不是	-11.2074
发病	-11.2077
不相信	-11.2077
体现在	-11.2079
就是因为	-11.2082
的快乐	-11.2085
超过了	-11.2085
间隔	-11.2087
接受了	-11.2088
富人	-11.2089
中考	-11.2089
杭	-11.209
是我的	-11.209
涵盖	-11.2091
生姜	-11.2091
顺着	-11.2093
身高	-11.2095
多方	-11.2096
几乎没有	-11.2097
它们的	-11.2098
大方	-11.2099
接入	-11.2099
决赛	-11.2101
调动	-11.2102
燃料	-11.2104
国人	-11.2106
自媒体	-11.2107
荫	-11.2108
讲的	-11.2108
三月	-11.211
但她	-11.2111
错误的	-11.2111
有关的	-11.2112
羊肉	-11.2112
大幅度	-11.2113
精细	-11.2114
成型	-11.2114
梅花	-11.2116
尧	-11.2117
眼部	-11.2118
课文	-11.2119
奴	-11.2119
专业化	-11.212
02	-11.2121
净利润	-11.2121
城里	-11.2122
泊	-11.2122
来进行	-11.2122
领导者	-11.2123
量子	-11.2124
了多少	-11.2126
因子	-11.2126
03	-11.2128
落下	-11.2128
会发现	-11.2128
这么做	-11.2133
开阔	-11.2135
好事	-11.214
▁[	-11.2141
隐患	-11.2141
等多种	-11.2143
的眼光	-11.2144
伴随	-11.2145
马来西亚	-11.2146
奔跑	-11.2148
右边	-11.2151
ps	-11.2154
脖子	-11.2157
变了	-11.2159
人们对	-11.2159
防水	-11.216
在外面	-11.216
很大程度	-11.2161
之美	-11.2163
高分	-11.2163
找工作	-11.2165
有无	-11.2166
反之	-11.2166
美团	-11.2167
怎样的	-11.2168
初级	-11.2169
一起去	-11.2171
楠	-11.2172
体会到	-11.2173
朝阳	-11.2173
切换	-11.2178
脆弱	-11.2179
主演	-11.218
宗旨	-11.218
轨迹	-11.2184
缓缓	-11.2185
贯彻落实	-11.2186
发展战略	-11.2186
1995	-11.2187
你们的	-11.219
下面的	-11.219
特效	-11.2191
当年的	-11.2192
更重要	-11.2193
标记	-11.2193
整齐	-11.2193
年限	-11.2195
表彰	-11.2197
眼光	-11.22
绑	-11.2201
梯	-11.2201
生产线	-11.2201
句话	-11.2202
抖	-11.2202
颜值	-11.2202
凝聚	-11.2203
反过来	-11.2204
权限	-11.2205
占地	-11.2206
是怎样	-11.2207
标注	-11.2208
中毒	-11.2208
西湖	-11.2209
干嘛	-11.221
摩擦	-11.2218
有何	-11.2218
痒	-11.2222
看你	-11.2228
认为自己	-11.2228
摩托车	-11.2229
也只是	-11.2231
品味	-11.2232
发音	-11.2232
踏实	-11.2234
回调	-11.2236
美观	-11.2236
青山	-11.224
赢得了	-11.2241
pe	-11.2243
起码	-11.2245
180	-11.2247
抑郁	-11.2248
赠送	-11.225
只想	-11.2251
每个人的	-11.2251
有兴趣	-11.2252
阐述	-11.2252
光荣	-11.2255
桌上	-11.2259
黏	-11.226
演唱会	-11.226
尊严	-11.2262
这么多年	-11.2262
却被	-11.2266
一期	-11.2269
匹	-11.2269
中国古代	-11.2271
按时	-11.2271
骨头	-11.2272
不会有	-11.2275
我才	-11.2275
co	-11.2279
楼盘	-11.2279
不论是	-11.2282
对策	-11.2283
失业	-11.2283
推销	-11.2285
省份	-11.2286
的巨大	-11.2286
怎么会	-11.2287
八年	-11.2287
外婆	-11.2287
步行	-11.2288
发布了	-11.229
笔记本	-11.2291
的特征	-11.2291
被告人	-11.2293
埃及	-11.2294
逊	-11.2294
克斯	-11.2295
路段	-11.2297
全日制	-11.2299
外表	-11.2301
能把	-11.2301
车间	-11.2303
技术人员	-11.2307
高点	-11.2307
大腿	-11.2308
是我国	-11.231
理科	-11.2312
特有的	-11.2312
技艺	-11.2313
半导体	-11.2315
需要注意	-11.2316
指甲	-11.2317
把这个	-11.2317
成立于	-11.2319
路边	-11.232
驰	-11.232
名词	-11.2321
以外的	-11.2322
理事	-11.2323
路面	-11.2325
和个人	-11.2329
底线	-11.2329
更要	-11.233
41	-11.2331
因为她	-11.2333
没钱	-11.2333
非要	-11.2333
常务理事	-11.2337
的愿望	-11.2338
杰出	-11.2339
决议	-11.234
阶级	-11.234
第三次	-11.2341
桂林	-11.2341
。­	-11.2341
还是很	-11.2345
天真	-11.2347
腻	-11.2349
皱	-11.235
恶心	-11.235
在地上	-11.2351
月光	-11.2353
度假	-11.2353
供水	-11.2354
盼	-11.2359
批发	-11.2361
▁b	-11.2363
炭	-11.2363
下来的	-11.2365
物价	-11.2372
科学研究	-11.2372
短暂	-11.2372
八字	-11.2374
宪	-11.2375
存放	-11.2375
身子	-11.2376
谁能	-11.2377
裁	-11.2378
历程	-11.2379
歌词	-11.238
家里的	-11.2381
角落	-11.2381
梗	-11.2383
仕	-11.2385
淀粉	-11.2387
机体	-11.2388
适度	-11.2395
但他们	-11.2396
束缚	-11.2397
7%	-11.2398
听课	-11.2398
艘	-11.2401
万科	-11.2404
平淡	-11.2405
▁北京	-11.2408
区内	-11.2408
章程	-11.2411
最主要的	-11.2411
披	-11.2412
拼多多	-11.2413
一万	-11.2414
面粉	-11.2421
专业知识	-11.2423
娃娃	-11.2424
之力	-11.2424
面临着	-11.2424
周围的	-11.2425
服务的	-11.2426
饱满	-11.2427
五百	-11.2428
民宿	-11.2428
路过	-11.2429
鲍	-11.2429
随之	-11.243
违法行为	-11.243
留下的	-11.2434
残酷	-11.2435
珠宝	-11.2437
很高的	-11.2439
的竞争	-11.244
是不会	-11.244
现金流	-11.2443
猴子	-11.2445
交谈	-11.2447
人力	-11.2447
无情	-11.2447
早晚	-11.2448
一两	-11.2449
是不可能	-11.245
有用	-11.2451
太高	-11.2452
勇于	-11.2455
沉重	-11.2457
让它	-11.2458
掩	-11.2462
景色	-11.2463
不为	-11.2464
强行	-11.2464
评分	-11.2467
白糖	-11.2467
永恒	-11.2468
该校	-11.2471
。9	-11.2472
放开	-11.2473
供电	-11.2473
绝对是	-11.2477
手动	-11.2477
胀	-11.2478
春季	-11.2478
剧烈	-11.2478
饰演	-11.2481
一世	-11.2482
糕	-11.2483
复发	-11.2484
皱纹	-11.2487
原子	-11.2488
与你	-11.2493
成年人	-11.2494
再生	-11.2495
黑白	-11.2496
建立起	-11.2496
的全部	-11.2499
本质上	-11.2501
面膜	-11.2501
婷	-11.2502
中外	-11.2503
否	-11.2506
市场化	-11.2507
在全球	-11.2511
在未来	-11.2514
但是他	-11.2515
究竟是	-11.252
吸烟	-11.2524
其中有	-11.2524
俗称	-11.2525
广州市	-11.2525
繁华	-11.2525
这是因为	-11.2526
毛主席	-11.2528
完善的	-11.2528
省委	-11.2529
失落	-11.253
兴起	-11.2531
三维	-11.2531
岛上	-11.2534
诵	-11.2534
亚马逊	-11.2535
火焰	-11.2538
功课	-11.254
发展中	-11.254
市面上	-11.2541
归来	-11.2542
要多	-11.2542
传授	-11.2543
他们都	-11.2543
几千	-11.2543
入驻	-11.2547
宽度	-11.2547
勺	-11.2549
轮胎	-11.2549
做一些	-11.2551
职业生涯	-11.2551
人之	-11.2551
知识的	-11.2552
熏	-11.2554
余额	-11.2557
不了解	-11.2558
无所谓	-11.256
磷	-11.256
气势	-11.2563
签名	-11.2563
养护	-11.2564
双眼	-11.2564
召	-11.2565
的患者	-11.2565
刃	-11.2569
的信心	-11.2569
重要的是	-11.2574
企业文化	-11.2574
穗	-11.2576
4%	-11.2576
长的	-11.2577
挂牌	-11.2578
人脉	-11.2579
最有	-11.2579
抓好	-11.258
浑	-11.2581
菜单	-11.2581
小麦	-11.2582
食品安全	-11.2582
抗日	-11.2583
垮	-11.2585
税率	-11.2586
海报	-11.2587
揭	-11.2588
驾驶员	-11.2589
都不知道	-11.2591
一向	-11.2591
冤	-11.2592
毁灭	-11.2592
活泼	-11.2593
不合格	-11.2594
心得	-11.2594
薇	-11.2595
一种是	-11.2596
晚年	-11.2596
悔	-11.2596
数值	-11.26
瑞士	-11.2601
开支	-11.2601
现行	-11.2601
你应该	-11.2602
客户端	-11.2604
的土地	-11.2606
深刻的	-11.2606
这个行业	-11.2607
颠覆	-11.2607
站起来	-11.2609
几点	-11.261
名家	-11.261
详细的	-11.2612
寒冷	-11.2612
数百	-11.2615
湿地	-11.2615
门诊	-11.2615
茅台	-11.2617
饮用	-11.2619
蓉	-11.2627
据悉	-11.2629
勋	-11.2631
单纯的	-11.2631
祠	-11.2632
情侣	-11.2632
所能	-11.2633
集中在	-11.2636
出入	-11.2637
计划生育	-11.2638
能使	-11.2639
行业发展	-11.2639
章节	-11.2639
不稳定	-11.2641
66	-11.2642
一直以来	-11.2648
的一面	-11.2649
扁	-11.2649
那样的	-11.2651
帮扶	-11.2652
受损	-11.2654
快捷	-11.2654
的时候就	-11.2656
干货	-11.2659
晚餐	-11.2659
优质的	-11.2659
参与者	-11.2661
曲折	-11.2662
他把	-11.2662
两手	-11.2663
企图	-11.2664
武术	-11.2665
十个	-11.2665
终结	-11.2666
的美好	-11.2667
建材	-11.2669
这三个	-11.2673
袍	-11.2675
出差	-11.2676
新中国	-11.2682
物业管理	-11.2684
多媒体	-11.2687
美学	-11.2688
机票	-11.2693
的合作	-11.2693
防疫	-11.2695
祛	-11.2697
云计算	-11.2698
暑	-11.2702
加入了	-11.2703
利好	-11.2704
ra	-11.2706
人身	-11.2707
手中的	-11.2707
诉求	-11.2707
这件事情	-11.2708
拂	-11.2709
携	-11.2711
奎	-11.2712
盾	-11.2713
因为在	-11.2714
这样的人	-11.2714
潜在	-11.2715
滋润	-11.2718
根本没有	-11.2719
眼袋	-11.2722
是一件	-11.2722
世界各地	-11.2723
没必要	-11.2723
无论如何	-11.2723
大爷	-11.2725
昊	-11.2726
衬	-11.2727
自家	-11.2728
焦点	-11.2729
广播电视	-11.2732
但你	-11.2732
搜索引擎	-11.2733
较好的	-11.2735
也让	-11.2736
肃	-11.2736
八十	-11.2736
如意	-11.2736
心灵的	-11.2739
6000	-11.274
严禁	-11.2742
专职	-11.2745
的个人	-11.2747
的时刻	-11.2747
有多大	-11.2747
浊	-11.2748
污水处理	-11.2748
的反应	-11.275
好转	-11.275
的发生	-11.275
三百	-11.2753
这片	-11.2753
15%	-11.2756
煤矿	-11.2756
风口	-11.2757
维权	-11.2757
几分钟	-11.2758
热烈	-11.276
和孩子	-11.2761
个小	-11.2761
膝盖	-11.2768
的思路	-11.2768
礼品	-11.2768
长春	-11.2768
庸	-11.2769
这张	-11.2769
反转	-11.2769
类型的	-11.2771
这事	-11.2772
最好是	-11.2774
最小	-11.2775
太阳能	-11.2775
帝王	-11.2776
置于	-11.2777
空白	-11.2781
状态下	-11.2782
福建省	-11.2783
援助	-11.2784
看不见	-11.2785
省政府	-11.2787
衫	-11.2792
狐	-11.2795
希望大家	-11.2795
淑	-11.2796
玩耍	-11.2797
大家可以	-11.2797
世界上最	-11.2798
51	-11.2798
她也	-11.2798
永久	-11.28
是这样的	-11.28
另有	-11.2801
市长	-11.2802
等领域	-11.2802
墩	-11.2804
承载	-11.2807
早早	-11.2809
半天	-11.281
术后	-11.2811
一圈	-11.2812
朝着	-11.2813
还不错	-11.2813
就读	-11.2815
所做的	-11.2815
相识	-11.2818
我们一起	-11.2819
阿拉伯	-11.282
才能够	-11.2821
清晰的	-11.2822
福州	-11.2823
还可	-11.2824
开花	-11.2824
使我	-11.2826
的热情	-11.283
建国	-11.283
金融危机	-11.283
不吃	-11.2834
钱包	-11.2836
统一的	-11.2838
流浪	-11.2838
最大化	-11.2841
吃完	-11.2843
设想	-11.2843
其间	-11.2844
」。	-11.2846
汉族	-11.2846
仓储	-11.2846
报酬	-11.2847
颁发	-11.2847
惊人	-11.2848
比你	-11.2848
合肥	-11.285
慎	-11.285
敦	-11.2851
时间和	-11.2851
交代	-11.2852
颇有	-11.2853
的内心	-11.2853
主要包括	-11.2854
庞大	-11.2854
全局	-11.2856
受众	-11.2856
可以根据	-11.2856
”;	-11.2857
增长率	-11.2858
分红	-11.2859
附件	-11.2859
唐朝	-11.286
七八	-11.2861
弯曲	-11.2861
蔓延	-11.2861
神奇的	-11.2862
的好处	-11.2864
香气	-11.2864
仍有	-11.287
你就会	-11.2875
主意	-11.2875
襄	-11.2876
什么的	-11.2878
瓶颈	-11.2878
基督教	-11.2879
所有权	-11.2879
老太太	-11.288
面临的	-11.2881
同等	-11.2883
就有了	-11.2884
旺盛	-11.2886
羞	-11.2888
正当	-11.2889
器材	-11.2889
最后一个	-11.2889
号称	-11.2893
侧面	-11.2893
这两种	-11.2894
ro	-11.2897
二维码	-11.2897
买到	-11.2897
改正	-11.2898
路人	-11.2899
对立	-11.2902
到这里	-11.2904
调理	-11.2904
不死	-11.2905
廉	-11.2906
天涯	-11.2907
什么东西	-11.2909
PS	-11.291
解放军	-11.2912
遍布	-11.2912
没关系	-11.2912
寂	-11.2914
流入	-11.2915
葫芦	-11.2916
即时	-11.2918
售价	-11.2918
建设和	-11.2919
好评	-11.2919
中医药	-11.2919
工作经验	-11.292
地块	-11.2921
的唯一	-11.2923
指向	-11.2923
雅思	-11.2925
各自的	-11.2926
而这	-11.2926
裁判	-11.2929
捉	-11.293
老头	-11.293
络	-11.293
有很大的	-11.2931
五月	-11.2932
表扬	-11.2932
较好	-11.2934
晋升	-11.2934
核实	-11.2935
测绘	-11.2936
圣人	-11.2938
拼搏	-11.294
不下	-11.294
橙	-11.2942
出具	-11.2945
饺子	-11.2951
卓越	-11.2954
叶片	-11.2954
传销	-11.2955
恰好	-11.2959
河道	-11.2959
学习和	-11.296
▁6	-11.2961
的优点	-11.2963
亲密	-11.2963
巅峰	-11.2963
吉林	-11.2967
虞	-11.2968
来不及	-11.2969
前沿	-11.2969
义务教育	-11.297
偏偏	-11.2971
址	-11.2974
起义	-11.2974
问道	-11.2975
筹备	-11.298
只要有	-11.2982
粪	-11.2982
水源	-11.2983
追究	-11.2984
跌破	-11.2986
on	-11.2988
录用	-11.2989
产业化	-11.299
于是我	-11.299
喜欢的	-11.2992
瞧	-11.2993
这才	-11.2993
我问	-11.2993
深情	-11.2994
准则	-11.2994
陈述	-11.2998
美白	-11.3
同期	-11.3
不锈钢	-11.3
我爸	-11.3004
障	-11.3005
开水	-11.3005
列表	-11.3006
显现	-11.3006
书院	-11.3006
全文	-11.3007
压制	-11.3008
支配	-11.301
贯	-11.301
回到了	-11.3011
在那	-11.3012
一律	-11.3013
加剧	-11.3014
本来就	-11.3015
越来越大	-11.3016
我不想	-11.3017
将自己	-11.3018
保安	-11.302
抗战	-11.302
闽	-11.3022
熔	-11.3022
北美	-11.3024
构	-11.3024
车上	-11.3026
习惯了	-11.3027
跑了	-11.3028
边境	-11.3028
野生	-11.3029
寺庙	-11.3031
测评	-11.3031
溶液	-11.3031
天子	-11.3033
光滑	-11.3033
微商	-11.3036
画画	-11.3038
债权人	-11.3038
三点	-11.3039
这个阶段	-11.304
称呼	-11.3041
遗忘	-11.3043
嘎	-11.3044
二百	-11.3046
土耳其	-11.3047
核准	-11.3047
撇	-11.3048
讲述了	-11.3051
成品	-11.3051
ceo	-11.3052
哇	-11.3056
体温	-11.3056
鉴于	-11.3057
机电	-11.3059
如果在	-11.3061
见识	-11.3062
酥	-11.3064
写字	-11.3065
2:	-11.3065
打扮	-11.3067
考古	-11.3068
演技	-11.3068
大火	-11.3068
诚实	-11.3069
自己也	-11.3073
剩下	-11.3074
相爱	-11.3075
姿态	-11.3075
开采	-11.3077
漂	-11.3079
电动车	-11.308
当时我	-11.3081
海边	-11.3081
你现在	-11.3084
第一批	-11.3084
公共服务	-11.3086
这只	-11.3086
不能再	-11.3086
刹车	-11.3087
大叔	-11.3087
产出	-11.3088
孙子	-11.3094
上次	-11.3095
经常会	-11.3095
座椅	-11.3096
什么呢	-11.3098
室外	-11.3098
68	-11.3099
会说	-11.31
蒲	-11.3101
载体	-11.3101
通往	-11.3103
不断提高	-11.3103
不小心	-11.3103
再看	-11.3105
真空	-11.3105
一听	-11.3105
肾脏	-11.3107
不确定	-11.3107
率领	-11.3107
如是	-11.311
吃过	-11.3111
萎缩	-11.3112
这个词	-11.3112
的勇气	-11.3113
折扣	-11.3114
牵头	-11.3116
悬挂	-11.312
贱	-11.3121
火爆	-11.3123
明亮	-11.3127
吉利	-11.3127
一步步	-11.3127
小学生	-11.3128
践行	-11.3128
妥协	-11.3129
打着	-11.3129
一些人	-11.3131
有种	-11.3133
多吃	-11.3133
就算是	-11.3134
大军	-11.3134
110	-11.3135
日线	-11.3135
搅	-11.3137
较小	-11.3138
交警	-11.314
的费用	-11.3144
源头	-11.3145
不尽	-11.3145
俺	-11.3145
考上	-11.3146
千万别	-11.3147
在整个	-11.3153
上报	-11.3154
延迟	-11.3155
52	-11.3156
儒家	-11.3157
及以上	-11.3158
火锅	-11.3159
星球	-11.3161
南宋	-11.3165
相思	-11.3165
做起	-11.3167
第一天	-11.3167
使他	-11.3169
躺	-11.3169
叫我	-11.3169
与他	-11.317
的商业	-11.3171
在今年	-11.3171
农药	-11.3172
泼	-11.3172
邹	-11.3173
的健康	-11.3175
的建设	-11.3176
余人	-11.3177
面板	-11.3177
我看到	-11.3178
关怀	-11.318
责任感	-11.318
达不到	-11.3182
股民	-11.3183
蜡	-11.3184
零件	-11.3185
就是为了	-11.3185
的风景	-11.3187
走廊	-11.3187
又会	-11.3188
摆在	-11.3189
杏	-11.319
就想	-11.319
半岛	-11.3191
gdp	-11.3191
沙发	-11.3191
的限制	-11.3193
也非常	-11.3193
打出	-11.3194
年起	-11.3195
不低于	-11.3196
邮政	-11.3196
概述	-11.3196
la	-11.3199
响起	-11.32
能够在	-11.3203
午餐	-11.3204
检察院	-11.3205
整整	-11.3206
压迫	-11.3209
拿下	-11.3209
不定	-11.321
冷漠	-11.3211
的逻辑	-11.3212
中途	-11.3212
我爱你	-11.3215
繁殖	-11.3215
在心里	-11.3219
基础知识	-11.322
法庭	-11.3222
的关注	-11.3222
中最	-11.3222
250	-11.3223
交通事故	-11.3224
睿	-11.3224
环境中	-11.3225
名额	-11.3225
斯坦	-11.3225
违约	-11.3225
艰苦	-11.3226
人选	-11.3227
锅炉	-11.3228
低位	-11.3229
不曾	-11.323
何况	-11.323
奠定了	-11.3231
排序	-11.3233
固然	-11.3235
周刊	-11.3238
的员工	-11.3239
消失了	-11.3239
大部分人	-11.3241
短短	-11.3244
背叛	-11.3246
衣物	-11.3248
可分为	-11.3248
陆军	-11.3249
富含	-11.3252
心想	-11.3253
多头	-11.3254
名师	-11.3254
民俗	-11.3256
自助	-11.3257
慈悲	-11.3258
把这些	-11.3258
侦查	-11.326
万亩	-11.326
集团公司	-11.3261
本身就是	-11.3268
墙上	-11.3268
将于	-11.3271
只为	-11.3271
珠海	-11.3271
搬迁	-11.3273
情境	-11.3273
云南省	-11.3274
残疾	-11.3276
宝马	-11.3278
高价	-11.3279
价值的	-11.3279
可达	-11.328
日本的	-11.3281
完成后	-11.3282
合一	-11.3283
就会有	-11.3287
秋季	-11.3287
疆	-11.3288
实践中	-11.3288
临近	-11.3291
早年	-11.3291
明确的	-11.3291
后世	-11.3291
适时	-11.3293
搏	-11.3295
累了	-11.3296
大片	-11.3296
楼下	-11.3297
悉	-11.33
专心	-11.3302
裸	-11.3302
作物	-11.3302
印发	-11.3304
嫉妒	-11.3304
向外	-11.3304
无可	-11.3306
主机	-11.3307
业内人士	-11.3307
稳健	-11.3307
砚	-11.3311
平和	-11.3312
屋顶	-11.3313
之类	-11.3316
饮水	-11.3317
招收	-11.3317
痛点	-11.3319
拟定	-11.3319
金牌	-11.3319
的人群	-11.332
工业化	-11.3321
综艺	-11.3322
不属于	-11.3324
精度	-11.3324
与中国	-11.3327
的事业	-11.3332
是一样的	-11.3335
1-2	-11.3336
扒	-11.3341
摄像头	-11.3343
候选人	-11.3343
我曾经	-11.3344
美景	-11.3346
脸色	-11.3346
点半	-11.3347
还款	-11.3348
四肢	-11.3349
钻石	-11.335
杀了	-11.335
奔驰	-11.335
镜子	-11.3351
工地	-11.3352
的运动	-11.3357
还不如	-11.3358
拉动	-11.3359
市政	-11.3359
管理系统	-11.336
党中央	-11.336
1994	-11.3362
苯	-11.3362
乙方	-11.3363
质地	-11.3364
城堡	-11.3365
的销售	-11.3366
复兴	-11.3367
地理位置	-11.337
首个	-11.3372
查阅	-11.3372
首发	-11.3376
而对于	-11.3377
执业	-11.3378
几句	-11.3378
扰	-11.3379
的含义	-11.3381
排毒	-11.3383
伸手	-11.3383
瘤	-11.3383
】:	-11.3384
恶化	-11.3384
的进步	-11.3386
插入	-11.3386
再多	-11.3387
的判断	-11.3389
樊	-11.339
南昌	-11.339
鄂	-11.3391
更改	-11.3391
一直到	-11.3391
不远	-11.3392
那么你	-11.3392
图表	-11.3392
蒋介石	-11.3393
序列	-11.3397
诸侯	-11.3397
选股	-11.3397
沿海	-11.3398
几乎所有	-11.3399
的那些	-11.3399
参考资料	-11.34
跳舞	-11.34
银行卡	-11.3402
样子	-11.3402
出路	-11.3403
搞定	-11.3403
嫂	-11.3404
上车	-11.3405
我们自己	-11.3405
太原	-11.3406
劣	-11.341
加之	-11.341
向我	-11.3411
抢救	-11.3413
恋人	-11.3416
注明	-11.3416
评定	-11.3417
掐	-11.3417
时段	-11.3417
袭击	-11.3419
在我国	-11.342
宝石	-11.3423
没有一个	-11.3425
可以去	-11.3425
早点	-11.3425
盒子	-11.3426
农民工	-11.3428
承接	-11.3428
的两个	-11.3431
菩提	-11.3433
而这些	-11.3433
的结构	-11.3435
狄	-11.3439
自己去	-11.344
原来是	-11.3442
▁本	-11.3444
使用了	-11.3444
会成为	-11.3445
说出来	-11.3451
条规定	-11.3453
手下	-11.3453
父子	-11.3453
要从	-11.3453
选取	-11.3457
今年的	-11.3458
零部件	-11.3459
看他	-11.3461
墨西哥	-11.3461
日语	-11.3462
这些年	-11.3462
七十	-11.3463
滋味	-11.3464
的利润	-11.3464
曾经的	-11.3464
虽说	-11.3465
嘲笑	-11.3466
快乐的	-11.347
消费者的	-11.3473
理论上	-11.3474
那一刻	-11.3474
72	-11.3474
湿度	-11.3474
还算	-11.3476
96	-11.348
三位	-11.348
多万	-11.3481
粗糙	-11.3481
月中旬	-11.3482
国内的	-11.3483
开盘	-11.3483
寺院	-11.3484
发作	-11.3484
从小就	-11.3489
杠	-11.3491
一举	-11.3491
哨	-11.3492
致富	-11.3493
的贡献	-11.3493
为您	-11.3498
马拉松	-11.3501
这个过程	-11.3502
储蓄	-11.3502
76	-11.3503
三亚	-11.3505
医学院	-11.3509
一件事情	-11.3509
前辈	-11.3509
就是你	-11.3512
厂房	-11.3513
喜悦	-11.3513
就可	-11.3515
燥	-11.3515
报表	-11.3515
的视频	-11.3516
二手	-11.3519
管理的	-11.3519
追踪	-11.352
物料	-11.3524
大佬	-11.3526
也只能	-11.3528
给别人	-11.3528
建设工程	-11.3528
机组	-11.3529
的差异	-11.353
智能手机	-11.353
年中国	-11.3531
el	-11.3533
服务员	-11.3533
劈	-11.3536
不利于	-11.3537
特定的	-11.3538
分级	-11.3539
痘痘	-11.3541
花椒	-11.3542
我只	-11.3543
即为	-11.3545
十九	-11.3545
偿还	-11.3546
最快	-11.3546
信息系统	-11.3546
民事	-11.3547
代表着	-11.3547
后天	-11.3548
要做到	-11.3549
窦	-11.3549
出演	-11.3549
型号	-11.3549
异地	-11.355
国庆	-11.3551
缘分	-11.3551
耕地	-11.3551
绽放	-11.3553
发货	-11.3553
”,“	-11.3554
枕头	-11.3554
哪种	-11.3555
我跟	-11.3558
同时还	-11.3558
四方	-11.3559
其实我	-11.3559
漫长的	-11.3561
合计	-11.3561
渴	-11.3562
身上的	-11.3563
风暴	-11.3563
身处	-11.3565
1992	-11.3565
诀	-11.3566
很是	-11.357
的妻子	-11.357
蓄	-11.3571
辖区	-11.3571
椒	-11.3572
停留在	-11.3572
纵横	-11.3572
黑龙江	-11.3572
前所未有	-11.3573
大米	-11.3574
共识	-11.3577
好朋友	-11.3577
文档	-11.3578
相差	-11.3578
邀	-11.3578
为中国	-11.3578
完全不	-11.3581
构成了	-11.3582
出色的	-11.3584
出家	-11.3584
绘制	-11.3586
逝	-11.3587
进军	-11.3589
靠着	-11.359
古老	-11.359
好不好	-11.359
失败的	-11.3591
先把	-11.3593
质感	-11.3594
逾	-11.3595
吏	-11.3596
生产企业	-11.3597
等你	-11.3599
万达	-11.3599
只在	-11.36
最美	-11.3602
学佛	-11.3604
像个	-11.3604
皇家	-11.3604
便可	-11.3605
的法律	-11.361
好吗	-11.3612
都应该	-11.3613
关系的	-11.3613
看病	-11.3615
卤	-11.3615
畜	-11.3616
你好	-11.3616
呼吁	-11.3616
捞	-11.3616
头顶	-11.3616
泰山	-11.3619
会发生	-11.3621
业务的	-11.3621
几个人	-11.3621
变换	-11.3622
比重	-11.3623
副总裁	-11.3623
报复	-11.3623
在我看来	-11.3624
舍不得	-11.3626
上限	-11.3628
不具备	-11.3628
屡	-11.3629
蓝天	-11.363
拿了	-11.3633
流转	-11.3634
巨额	-11.3634
新零售	-11.3636
贪婪	-11.3636
寓意	-11.3639
役	-11.3639
激烈的	-11.3639
你是否	-11.364
高潮	-11.3641
尾巴	-11.3641
走访	-11.3641
从业人员	-11.3642
洪水	-11.3646
to	-11.3648
雀	-11.3648
站立	-11.3649
方可	-11.3649
现货	-11.3652
货运	-11.3654
固定的	-11.3655
多样	-11.3656
椅	-11.3656
信访	-11.3657
确	-11.3657
堆积	-11.3658
亲近	-11.366
我以为	-11.366
53	-11.366
万亿	-11.3662
梦幻	-11.3663
双向	-11.3663
十月	-11.3663
国土资源	-11.3663
县委	-11.3667
带走	-11.3668
的观念	-11.3668
彰显	-11.3671
液压	-11.3673
反击	-11.3673
最美的	-11.3674
好吧	-11.3675
终生	-11.3676
哪怕是	-11.3679
文化遗产	-11.368
再见	-11.3682
屠	-11.3682
▁博文	-11.3683
防火	-11.3686
带到	-11.3686
摧毁	-11.3686
的事物	-11.3691
还是会	-11.3691
商品房	-11.3692
一篇文章	-11.3693
ne	-11.3693
比较大	-11.3694
太多的	-11.3694
顺畅	-11.3697
卖点	-11.3697
汇聚	-11.3698
胡同	-11.3701
栽	-11.3701
意义上的	-11.3701
1993	-11.3705
西医	-11.3707
会给	-11.3711
办公厅	-11.3711
杖	-11.3711
失踪	-11.3711
黄昏	-11.3713
的画面	-11.3715
在里面	-11.3715
。「	-11.3715
电磁	-11.3718
想象的	-11.372
中山	-11.372
自私	-11.3721
堪	-11.3721
破碎	-11.3722
不通	-11.3722
回购	-11.3723
但从	-11.3724
值得一提	-11.3724
聪	-11.3725
在当时	-11.3726
就很	-11.3727
▁c	-11.3727
热心	-11.3727
丈	-11.3729
约会	-11.3729
尸体	-11.3733
将近	-11.3733
字体	-11.3734
可以帮助	-11.3735
血液循环	-11.3735
教育教学	-11.3736
兼顾	-11.3738
农历	-11.3739
丢了	-11.3739
态势	-11.3739
直观	-11.3739
矿山	-11.3739
干活	-11.374
负荷	-11.374
不佳	-11.3741
半个月	-11.3743
感兴趣的	-11.3743
的欲望	-11.3747
ad	-11.3747
所需要的	-11.3748
裹	-11.375
▁10	-11.375
甸	-11.375
两名	-11.3751
二字	-11.3752
我们知道	-11.3752
枢纽	-11.3753
瑞典	-11.3754
前几天	-11.3755
遥远	-11.3755
的境界	-11.3757
音频	-11.3757
军区	-11.3758
▁陈	-11.3758
1990	-11.3758
咳	-11.3759
我们还	-11.376
完全不同	-11.3761
居士	-11.3761
钾	-11.3763
视力	-11.3765
就好像	-11.3765
除外	-11.3766
手册	-11.3766
影响了	-11.3768
积极的	-11.3769
渊	-11.3769
是需要	-11.377
匀	-11.3772
书本	-11.3772
人员的	-11.3773
肠胃	-11.3775
青海	-11.3776
的走势	-11.3776
教程	-11.3778
称赞	-11.3778
的分析	-11.3779
芝麻	-11.378
厌恶	-11.3785
恐慌	-11.3786
团购	-11.3787
灿烂	-11.3787
原则上	-11.3789
最容易	-11.379
新一代	-11.3791
很长	-11.3792
是多么	-11.3793
根据自己	-11.3793
凸	-11.3794
的材料	-11.3795
三峡	-11.3795
下单	-11.3795
这种方法	-11.3796
说不定	-11.3797
徘徊	-11.3797
我省	-11.3798
朋	-11.3799
捣	-11.38
物种	-11.38
总觉得	-11.3802
上司	-11.3802
白菜	-11.3802
名牌	-11.3803
多位	-11.3803
旅行社	-11.3806
的人才	-11.3808
键盘	-11.3808
现有的	-11.3808
无所	-11.381
自如	-11.3811
修理	-11.3813
在这样的	-11.3814
和小	-11.3815
着重	-11.3815
该股	-11.3815
了什么	-11.3816
触发	-11.3817
方位	-11.3817
前提	-11.3818
值班	-11.3819
父亲的	-11.3819
这三	-11.382
04	-11.382
被认为是	-11.382
网点	-11.3821
八大	-11.3822
理赔	-11.3822
小儿	-11.3824
死者	-11.3825
果实	-11.3827
充分的	-11.3827
做生意	-11.3827
巧妙	-11.3828
只不过是	-11.3829
强迫	-11.383
薄弱	-11.3834
周岁	-11.3836
概	-11.3836
漫长	-11.3837
偏差	-11.3838
小伙伴	-11.384
导致了	-11.384
巨人	-11.384
也会有	-11.3841
数码	-11.3842
政协	-11.3842
更何况	-11.3844
2021	-11.3846
聘请	-11.3847
你可能	-11.3847
纤	-11.3847
江山	-11.3847
~~	-11.3848
这样才能	-11.3849
很开心	-11.3852
他人的	-11.3852
你去	-11.3852
闺蜜	-11.3853
为核心	-11.3854
举例	-11.3855
借口	-11.3856
恒大	-11.3857
使之	-11.3857
麻醉	-11.3858
星期	-11.386
礼貌	-11.3861
78	-11.3862
分化	-11.3863
祭祀	-11.3864
长短	-11.3864
逃离	-11.3864
完全没有	-11.3865
卖给	-11.3867
回合	-11.3867
深深的	-11.3867
召唤	-11.3868
最适合	-11.3869
微生物	-11.3871
知识分子	-11.3873
小小	-11.3873
犯罪嫌疑	-11.3874
的功效	-11.3875
还是有	-11.3877
佑	-11.3878
盘中	-11.3879
摸索	-11.388
有足够的	-11.388
求助	-11.388
雨水	-11.3881
燃气	-11.3883
共建	-11.3883
洗盘	-11.3883
确诊	-11.3884
捕捉	-11.3885
时不时	-11.3886
哎	-11.3888
▁第一	-11.3888
实务	-11.389
制动	-11.3891
屋里	-11.3891
谈恋爱	-11.3893
界定	-11.3893
最大限度	-11.3894
不可避免	-11.3894
拦	-11.3894
充足的	-11.3894
is	-11.3896
学子	-11.3897
与人	-11.3897
专栏	-11.3897
傍晚	-11.3897
一带一路	-11.3899
深层	-11.3899
推送	-11.3899
的生产	-11.39
海底	-11.3901
绘本	-11.3904
高度重视	-11.3905
QQ	-11.3907
捐款	-11.3907
跟进	-11.3907
移植	-11.3908
区的	-11.391
57	-11.3911
只能是	-11.3911
还是在	-11.3914
愿景	-11.3915
59	-11.3915
早日	-11.3915
叙	-11.3915
寄托	-11.3916
胎儿	-11.3917
倩	-11.3919
南山	-11.3919
同伴	-11.392
而且是	-11.3921
柔软	-11.3922
日常工作	-11.3922
怪物	-11.3922
原有的	-11.3924
媚	-11.3924
医疗器械	-11.3924
税务机关	-11.3927
男忄生	-11.3928
优良	-11.3932
大蒜	-11.3933
安定	-11.3933
这些东西	-11.3933
中断	-11.3934
碎片	-11.3935
裤子	-11.3936
主打	-11.3936
流泪	-11.3936
游戏中	-11.3936
列出	-11.3939
同胞	-11.394
制药	-11.3941
讲课	-11.3943
配偶	-11.3943
款式	-11.3944
紫色	-11.3944
季度	-11.3944
8000	-11.3945
起初	-11.3947
〉	-11.3947
张家界	-11.3948
提到的	-11.3948
电网	-11.3951
64	-11.3953
保证金	-11.3956
老师们	-11.3958
革	-11.3958
请教	-11.3958
与否	-11.3958
肤	-11.3959
畅通	-11.3959
菊花	-11.396
听过	-11.3962
骄	-11.3963
的脚步	-11.3966
这话	-11.3967
本事	-11.3967
的有效	-11.3968
预备	-11.3968
短时间内	-11.3972
不少人	-11.3976
棵	-11.3977
第二种	-11.3978
不是一个	-11.3978
但又	-11.3978
就更	-11.398
子弹	-11.3982
不仅要	-11.3985
伦理	-11.3986
意向	-11.3986
的题目	-11.3988
馒头	-11.3989
受害者	-11.399
宁夏	-11.3992
截图	-11.3993
访谈	-11.3993
发改委	-11.3996
除去	-11.3996
我只是	-11.3997
赔付	-11.4
侵害	-11.4
公司在	-11.4
知名度	-11.4005
常态	-11.4006
阳气	-11.4007
星座	-11.4008
去过	-11.401
岩石	-11.401
这些都	-11.401
有这样的	-11.4011
国有资产	-11.4012
也只有	-11.4013
勇士	-11.4013
新一轮	-11.4015
新冠肺炎	-11.4018
财物	-11.4018
教师的	-11.4021
在香港	-11.4022
无人机	-11.4023
麟	-11.4024
多大	-11.4024
毛巾	-11.4025
线的	-11.4026
法律规定	-11.4028
的思考	-11.4029
等方面的	-11.4029
都非常	-11.403
第十	-11.4032
创造力	-11.4033
这里面	-11.4034
这里有	-11.4034
或许是	-11.4037
棍	-11.4037
田园	-11.4037
的领导	-11.4037
匠	-11.4038
引流	-11.4038
从这个	-11.4038
经济效益	-11.4041
有一位	-11.4043
因其	-11.4043
at	-11.4044
答复	-11.4045
着我	-11.4045
因缘	-11.4045
向他	-11.4046
每位	-11.4048
档次	-11.4051
要让	-11.4052
在这些	-11.4052
山路	-11.4054
市场营销	-11.4054
的美	-11.4057
自己在	-11.4057
变迁	-11.4058
将是	-11.4059
净土	-11.4059
水电	-11.4061
就是我们	-11.4062
不代表	-11.4062
排行榜	-11.4063
导入	-11.4063
誉	-11.4063
的联系	-11.4064
赌博	-11.4066
新华	-11.4068
嫁给	-11.4069
大学毕业	-11.4069
流出	-11.407
虽然是	-11.407
我们对	-11.4071
雪山	-11.4072
局势	-11.4072
绵	-11.4074
湖泊	-11.4076
在路上	-11.4076
同时也是	-11.4076
学习方法	-11.4079
恶劣	-11.408
也应该	-11.4081
探测	-11.4082
但对于	-11.4084
的最高	-11.4085
经济社会	-11.4085
榜样	-11.4085
我们看到	-11.4085
生产经营	-11.4086
评委	-11.4086
侨	-11.4087
涅	-11.4088
最新的	-11.409
噪音	-11.4091
有益	-11.4092
戌	-11.4095
放手	-11.4095
算了	-11.4097
信赖	-11.4097
手掌	-11.4098
考前	-11.4098
憋	-11.4105
愤	-11.4106
妹子	-11.4106
实质	-11.4107
▁7	-11.4107
鲜明	-11.4109
中东	-11.4109
广泛的	-11.411
呵护	-11.4111
大豆	-11.4111
开来	-11.4111
看清	-11.4111
健康发展	-11.4113
药业	-11.4113
不便	-11.4115
现在已经	-11.4116
出轨	-11.4119
一贯	-11.4119
投降	-11.412
派出	-11.4123
海滩	-11.4123
深远	-11.4123
应聘	-11.4123
借贷	-11.4124
的可能	-11.4128
迎来了	-11.413
赶快	-11.4131
山脉	-11.4132
保费	-11.4134
下雨	-11.4137
白银	-11.4138
也为	-11.4139
起身	-11.4139
体制改革	-11.414
尉	-11.414
背景下	-11.414
开会	-11.414
河水	-11.4142
看我	-11.4144
用法	-11.4145
基准	-11.4145
梦中	-11.4153
不惜	-11.4154
▁刘	-11.4154
挂在	-11.4156
是一名	-11.4157
阴谋	-11.4158
秉承	-11.416
又不	-11.4161
貌	-11.4163
拉开	-11.4163
9%	-11.4163
虐	-11.4169
的追求	-11.417
无常	-11.417
看电视	-11.4171
乖	-11.4171
诊疗	-11.4172
哭泣	-11.4172
未知	-11.4173
回了	-11.4177
唤醒	-11.4177
学生会	-11.4177
院士	-11.4177
其中一个	-11.4179
市公安局	-11.418
文革	-11.418
放进	-11.418
必不可少	-11.4182
保管	-11.4183
误会	-11.4183
帮他	-11.4184
的广告	-11.4184
给了我	-11.4184
陪着	-11.4186
晚期	-11.4187
细细	-11.4189
两句	-11.4189
-10	-11.4189
名气	-11.419
本身的	-11.4191
趣味	-11.4192
不在乎	-11.4193
毫无疑问	-11.4193
众所周知	-11.4194
查找	-11.4196
枯燥	-11.4196
隔壁	-11.4197
备受	-11.4197
商户	-11.4199
苔	-11.4199
这样说	-11.4199
而被	-11.4201
编码	-11.4201
家长们	-11.4201
堵塞	-11.4202
方言	-11.4202
见了	-11.4202
什么事	-11.4203
如果能	-11.4203
一枚	-11.4203
毒品	-11.4203
官兵	-11.4204
资产管理	-11.4206
钠	-11.4206
邮箱	-11.4207
社会科学	-11.4209
的种种	-11.421
出一个	-11.4211
有不同的	-11.4214
标志着	-11.4214
受过	-11.4214
之余	-11.4216
▁当	-11.4216
通俗	-11.4216
杀手	-11.4217
ri	-11.4217
那份	-11.4217
违背	-11.4217
邓小平	-11.4217
动摇	-11.4218
舰队	-11.4219
彬	-11.4219
清明	-11.4221
大多是	-11.4223
中共中央	-11.4225
时节	-11.4225
畏	-11.4225
庄严	-11.4226
民办	-11.4226
接触到	-11.4226
一到	-11.4227
生活中的	-11.4229
54	-11.4229
▁饰	-11.423
又被	-11.423
古老的	-11.423
应用于	-11.423
发给	-11.4233
0°	-11.4234
的状况	-11.4234
省市	-11.4235
圣经	-11.4238
何种	-11.4239
监理	-11.4239
通常是	-11.4239
用到	-11.424
没有必要	-11.4241
祁	-11.4242
人情	-11.4243
军团	-11.4244
可以将	-11.4245
前面的	-11.4248
干了	-11.4248
推出的	-11.4249
启蒙	-11.425
死的	-11.425
晖	-11.4251
听起来	-11.4252
一流的	-11.4257
这本	-11.4258
为本	-11.4259
总共	-11.4259
不少于	-11.426
很清楚	-11.426
怎么回事	-11.4264
米的	-11.4265
几分	-11.4266
璐	-11.4267
级的	-11.427
是比较	-11.4272
意图	-11.4274
让别人	-11.4274
小火	-11.4277
京城	-11.4278
还有什么	-11.4279
这其中	-11.4279
钢管	-11.428
剧中	-11.4281
的影子	-11.4282
女王	-11.4282
名声	-11.4282
若有	-11.4283
蚕	-11.4287
北宋	-11.429
交替	-11.4291
去买	-11.4291
阴影	-11.4291
悲哀	-11.4292
那年	-11.4292
这里是	-11.4296
使我们	-11.4297
表达了	-11.4298
房租	-11.4299
国有企业	-11.4299
掩盖	-11.43
车身	-11.4303
打败	-11.4305
转入	-11.4306
揽	-11.4306
餐馆	-11.4306
浪潮	-11.4307
交易系统	-11.4308
选购	-11.4308
皇上	-11.4308
身体的	-11.4308
的行业	-11.4308
开着	-11.4311
往后	-11.4311
冰雪	-11.4312
唤	-11.4314
可使	-11.4315
的学校	-11.4316
凸显	-11.4319
系统中	-11.4319
祈祷	-11.432
色泽	-11.432
梵	-11.4321
次日	-11.4321
面貌	-11.4321
我记得	-11.4322
从一个	-11.4325
商学院	-11.4326
并以	-11.4326
把手	-11.4327
卡尔	-11.433
一味	-11.433
网民	-11.4331
日出	-11.4331
外科	-11.4331
芸	-11.4332
设在	-11.4333
求职	-11.4333
热度	-11.4335
市场需求	-11.4336
顺应	-11.434
规范化	-11.434
的认可	-11.4341
扛	-11.4344
之作	-11.4344
也算是	-11.4344
佩服	-11.4347
丽江	-11.4349
海岸	-11.4352
手表	-11.4355
头疼	-11.4356
大树	-11.4356
站点	-11.4356
会更	-11.4357
的财富	-11.4358
的收益	-11.4358
的手机	-11.4359
现实生活	-11.4359
护照	-11.436
自然资源	-11.436
诠释	-11.4362
心智	-11.4363
想过	-11.4364
五六	-11.4367
判定	-11.4368
争吵	-11.4369
背部	-11.4371
褐色	-11.4371
聆听	-11.4372
霖	-11.4374
胸部	-11.4375
组织开展	-11.4376
拥有了	-11.4377
无锡	-11.4377
寻常	-11.4377
射击	-11.4378
步伐	-11.4378
沁	-11.4379
回到家	-11.438
千古	-11.438
de	-11.4381
以致	-11.4384
满意的	-11.4385
天后	-11.4386
找了	-11.4386
换句话说	-11.4388
模范	-11.4388
元的	-11.4389
第三百	-11.439
仆	-11.439
不满意	-11.4393
开创	-11.4393
实例	-11.4394
亮相	-11.4395
狐狸	-11.4396
后来我	-11.4397
这儿	-11.4399
忙着	-11.44
上行	-11.4401
光泽	-11.4402
生前	-11.4402
特别的	-11.4402
拜访	-11.4405
刹	-11.4405
打开了	-11.4406
不公平	-11.4407
将继续	-11.4408
这几个	-11.4408
等因素	-11.4411
三条	-11.4414
存量	-11.4414
情商	-11.4414
鼓舞	-11.4414
潜水	-11.4415
仍旧	-11.4415
贴近	-11.4416
成名	-11.4416
预定	-11.4417
背着	-11.4418
技法	-11.4418
扬州	-11.4418
法门	-11.4419
汗水	-11.4421
传染病	-11.4421
宝贵	-11.4422
词语	-11.4424
俄国	-11.4425
铲	-11.4425
站着	-11.4428
痛苦的	-11.4429
对你的	-11.4431
叙事	-11.4431
伸出	-11.4432
这种方式	-11.4434
选择题	-11.4436
很高兴	-11.4436
水上	-11.4437
白色的	-11.4438
默认	-11.4438
在国外	-11.4438
及相关	-11.444
和技术	-11.4442
理工大学	-11.4442
森林公园	-11.4443
梢	-11.4443
正是因为	-11.4445
辩论	-11.4447
190	-11.4447
如果你是	-11.4447
柔和	-11.4448
不要太	-11.4448
真人	-11.4448
胆固醇	-11.4449
仅为	-11.4449
的提升	-11.4451
力争	-11.4451
老化	-11.4452
峡谷	-11.4453
但不	-11.4454
现实的	-11.4458
好不容易	-11.4458
纠缠	-11.4459
淡淡的	-11.4459
在哪	-11.446
现已	-11.446
行为的	-11.4461
科技大学	-11.4462
经纪人	-11.4462
摄入	-11.4463
模特	-11.4464
木材	-11.4466
认识了	-11.4466
耻	-11.4467
编号	-11.4467
心脏病	-11.4468
表面上	-11.4469
的伤害	-11.4469
心头	-11.447
想做	-11.447
温暖的	-11.4472
在生活中	-11.4476
特长	-11.4477
只要是	-11.4477
甫	-11.4479
差异化	-11.448
球场	-11.4481
轮廓	-11.4482
往上	-11.4483
清澈	-11.4483
习俗	-11.4484
国民经济	-11.4485
多样化	-11.4486
山西省	-11.4486
喝了	-11.4486
风云	-11.4486
三角形	-11.4487
最初的	-11.449
其后	-11.449
原型	-11.4494
初始	-11.4495
前列	-11.4496
创伤	-11.4497
的资料	-11.4497
忏悔	-11.4497
你对	-11.4498
誓	-11.4498
入睡	-11.4498
武功	-11.4499
航母	-11.4501
委会	-11.4502
宽松	-11.4502
苏轼	-11.4502
最少	-11.4502
培训机构	-11.4503
都觉得	-11.4503
结合起来	-11.4503
卡片	-11.4503
先进单位	-11.4505
联系方式	-11.4506
病变	-11.4507
不合	-11.4507
也是如此	-11.4508
规划和	-11.4509
排查	-11.451
没问题	-11.4511
版的	-11.4511
程序员	-11.4512
可以使用	-11.4513
持续发展	-11.4513
才开始	-11.4513
歌唱	-11.4513
误差	-11.4514
歌舞	-11.4514
一朵	-11.4514
抽烟	-11.4514
不至于	-11.4515
与众不同	-11.4515
自称	-11.452
几家	-11.4521
也比较	-11.4521
辖	-11.4525
在自己的	-11.4525
蒸汽	-11.4531
使用权	-11.4531
代理人	-11.4531
并通过	-11.4532
琢磨	-11.4532
逾期	-11.4534
谜	-11.4535
正能量	-11.4536
水流	-11.4536
转为	-11.4543
蒸发	-11.4543
阳台	-11.4544
斧	-11.4544
布施	-11.4545
不影响	-11.4545
航空公司	-11.4547
善意	-11.4548
什么叫	-11.4549
该项目	-11.455
管制	-11.4552
封面	-11.4552
忽略了	-11.4552
贴心	-11.4552
大面积	-11.4553
当地人	-11.4553
我感觉	-11.4553
相信自己	-11.4554
讲了	-11.4556
迭代	-11.4556
没用	-11.4559
播种	-11.4561
陇	-11.4563
护肤	-11.4563
的矛盾	-11.4564
保湿	-11.4565
普通话	-11.4566
麻木	-11.4568
操作系统	-11.4568
举办的	-11.4569
必须是	-11.4569
假装	-11.4571
明清	-11.4572
86	-11.4574
做的事	-11.4574
福报	-11.4574
主权	-11.4576
疗	-11.4577
海域	-11.4577
那次	-11.4577
半月	-11.4578
俗话说	-11.4579
小心翼翼	-11.458
一刻	-11.4581
期刊	-11.4582
保持着	-11.4585
小伙子	-11.4586
下半年	-11.4586
我们认为	-11.4587
胳膊	-11.4588
包含了	-11.4589
增量	-11.4592
行星	-11.4592
那只	-11.4594
无声	-11.4594
断了	-11.4594
饲养	-11.4595
你所	-11.4598
三四	-11.4598
一个小时	-11.4599
各省	-11.46
议论	-11.46
图中	-11.4602
三十年	-11.4604
他没有	-11.4605
远处	-11.4605
家庭教育	-11.4607
绪	-11.4608
氯	-11.4608
区政府	-11.4608
都无法	-11.4609
过着	-11.461
一般都	-11.4614
的象征	-11.4615
业态	-11.4616
但是如果	-11.4617
的职责	-11.4618
然后就	-11.4618
任命	-11.4618
达标	-11.4619
壮观	-11.4621
25%	-11.4622
短暂的	-11.4623
荆	-11.4625
不服	-11.4626
栖	-11.4626
潇洒	-11.4626
复苏	-11.4629
传送	-11.463
进出	-11.463
擅自	-11.4631
分歧	-11.4631
啃	-11.4632
甚至还	-11.4633
填报	-11.4635
预言	-11.4636
恰恰	-11.4637
手脚	-11.4637
坐标	-11.4637
中等	-11.4638
花开	-11.4641
登场	-11.4641
的改变	-11.4642
涂抹	-11.4646
盏	-11.4646
不停的	-11.4647
历史文化	-11.4647
的结论	-11.4647
支队	-11.4648
裴	-11.4649
泪水	-11.465
无论你	-11.4652
出局	-11.4653
七月	-11.4653
只是在	-11.4655
一个男人	-11.4655
核桃	-11.4655
政务	-11.4657
数千	-11.4657
岚	-11.4657
的名义	-11.4658
黄瓜	-11.4659
指着	-11.4659
地球上	-11.466
复活	-11.4663
督	-11.4663
房东	-11.4664
投保	-11.4665
排斥	-11.4666
是为	-11.4667
故宫	-11.4668
化为	-11.4668
衰老	-11.467
尊敬	-11.467
大股东	-11.467
助手	-11.467
名誉	-11.4672
大奖	-11.4675
下手	-11.4675
色调	-11.4676
玛丽	-11.4677
片段	-11.4679
把钱	-11.4682
本金	-11.4682
各方面	-11.4682
造假	-11.4683
疾病的	-11.4684
概况	-11.4685
最爱	-11.4687
机构的	-11.4688
彻	-11.4688
潜意识	-11.4688
构图	-11.469
悠悠	-11.469
脱贫	-11.4693
特色的	-11.4694
左右的	-11.4695
巫	-11.4695
现实中	-11.4695
东海	-11.4697
流行的	-11.4697
产值	-11.4699
沧桑	-11.47
腐蚀	-11.47
行政处罚	-11.47
骚	-11.4701
mo	-11.4702
一口气	-11.4703
运算	-11.4706
二十四	-11.4708
神秘的	-11.4708
的车	-11.4708
干涉	-11.4708
狭窄	-11.471
讲到	-11.4712
教育的	-11.4714
的时光	-11.4714
必须在	-11.4715
强力	-11.4716
趟	-11.4718
个工作日	-11.472
的细节	-11.4721
尺度	-11.4722
创作的	-11.4723
还不够	-11.4723
这天	-11.4724
忧伤	-11.4725
过错	-11.4725
想像	-11.4726
分辨	-11.4726
领导干部	-11.4729
了呢	-11.473
主要内容	-11.473
制定了	-11.4731
的平台	-11.4732
展示了	-11.4733
脱落	-11.4735
收盘	-11.4735
口岸	-11.4736
这都是	-11.4736
种族	-11.4738
的信任	-11.4741
创造出	-11.4742
一字	-11.4742
学的	-11.4745
学说	-11.4746
冀	-11.4746
小腿	-11.4748
伽	-11.4748
67	-11.4749
合力	-11.475
一瓶	-11.475
怀里	-11.475
往返	-11.475
彩虹	-11.4751
要考虑	-11.4751
很有可能	-11.4751
谎言	-11.4752
不难	-11.4752
力求	-11.4752
厉	-11.4753
佩戴	-11.4753
去医院	-11.4754
的笑容	-11.4759
有用的	-11.4762
浙	-11.4762
开玩笑	-11.4763
轰	-11.4764
舞台上	-11.4765
心跳	-11.4766
藉	-11.4767
场上	-11.4768
怀着	-11.477
创业板	-11.4772
一趟	-11.4772
很深	-11.4772
赛道	-11.4772
满满	-11.4772
突发	-11.4772
变得更加	-11.4775
澜	-11.4776
范畴	-11.4779
扭曲	-11.4779
巧克力	-11.478
专属	-11.4782
柠檬	-11.4783
在同一	-11.4783
平民	-11.4783
就是说	-11.4784
不看	-11.4784
客车	-11.4784
涩	-11.4786
迷信	-11.4786
多年前	-11.4787
样式	-11.4787
往生	-11.4788
之子	-11.4788
旁边的	-11.4788
生机	-11.4789
年末	-11.4789
迷失	-11.479
也得	-11.4792
廉价	-11.4793
的模样	-11.4794
壹	-11.4796
门户	-11.4798
班长	-11.4798
糟	-11.4799
博士学位	-11.4799
剥夺	-11.48
红楼梦	-11.48
的决心	-11.48
打压	-11.4803
其一	-11.4804
但其	-11.4804
烹饪	-11.4805
或者其他	-11.4805
这样就	-11.4805
那段	-11.4806
倘若	-11.4806
说的是	-11.4806
〈	-11.4807
起到了	-11.4808
是怎样的	-11.4808
窃	-11.4809
个人的	-11.4811
如果你想	-11.4811
永远不会	-11.4813
如今的	-11.4814
就不要	-11.4816
的阶段	-11.4816
麦克	-11.4816
屁	-11.4819
场比赛	-11.4819
婚后	-11.482
文体	-11.4821
成长的	-11.4823
▁如果	-11.4823
波段	-11.4823
再也	-11.4823
音响	-11.4823
倪	-11.4824
票据	-11.4828
菲律宾	-11.4828
开办	-11.4831
台风	-11.4831
喝水	-11.4831
精美	-11.4833
不是说	-11.4833
读完	-11.4834
品位	-11.4834
适合自己	-11.4835
克制	-11.4837
一棵	-11.4837
竞技	-11.4837
大理	-11.484
蹭	-11.484
长辈	-11.4841
硕士学位	-11.4841
颁布	-11.4841
入场	-11.4842
频频	-11.4846
评为	-11.4846
瓣	-11.4847
改变自己	-11.485
貌似	-11.485
操控	-11.485
分支	-11.4854
车道	-11.4855
恶魔	-11.4855
马路	-11.4856
莫名其妙	-11.4859
信息的	-11.486
是被	-11.4861
缅甸	-11.4861
两周	-11.4863
快手	-11.4864
墙面	-11.4864
现在是	-11.4865
娱乐圈	-11.4865
再现	-11.4866
ok	-11.4866
眼球	-11.4867
审议	-11.4867
的乐趣	-11.4867
会同	-11.4868
七个	-11.4871
合资	-11.4873
房间里	-11.4874
水资源	-11.4876
三分之一	-11.4877
体系建设	-11.4878
在使用	-11.4879
点燃	-11.4881
不会再	-11.4882
黔	-11.4883
其所	-11.4883
他已经	-11.4883
华丽	-11.4883
但还是	-11.4884
的物质	-11.4884
的实力	-11.4885
空头	-11.4887
97	-11.4888
思维方式	-11.4889
夕阳	-11.4892
的计划	-11.4895
太后	-11.4896
为啥	-11.49
我来	-11.4902
可是我	-11.4903
的自由	-11.4904
藻	-11.4907
对他们	-11.4907
黄褐斑	-11.4907
问候	-11.4907
听取	-11.4912
贫困户	-11.4913
900	-11.4914
时时	-11.4915
恰	-11.4917
九年	-11.4919
脚步	-11.4923
峻	-11.4923
孤单	-11.4924
的时间里	-11.4928
建设的	-11.4928
蹦	-11.493
意味	-11.4931
油画	-11.4933
香蕉	-11.4934
子里	-11.4934
上图	-11.4935
刷新	-11.4935
贝尔	-11.4937
滋养	-11.4939
片刻	-11.4939
近视	-11.494
的创作	-11.4942
自尊	-11.4942
了几	-11.4942
62	-11.4944
直属	-11.4944
颤	-11.4945
督查	-11.4947
死于	-11.4948
转折	-11.4948
企业在	-11.4948
垢	-11.4948
产品经理	-11.4952
看一下	-11.4952
实地	-11.4953
-"	-11.4957
抑郁症	-11.4958
找一个	-11.4958
转移到	-11.4958
必需	-11.4959
存在于	-11.496
其次是	-11.4961
不许	-11.4961
返还	-11.4961
盘整	-11.4963
一号	-11.4963
念头	-11.4964
更名为	-11.4965
不同意	-11.4965
术语	-11.4968
慎重	-11.4968
眼前的	-11.4969
装甲	-11.497
贬值	-11.497
第一种	-11.4973
等一系列	-11.4974
并与	-11.4976
回升	-11.4977
有余	-11.4977
了很久	-11.4979
特种	-11.498
戏曲	-11.498
黛	-11.498
成败	-11.498
黑人	-11.4981
简直是	-11.4983
努	-11.4984
汇集	-11.4984
综	-11.4985
钧	-11.4986
贵人	-11.4986
眼霜	-11.4986
技术创新	-11.499
自治	-11.499
很不错	-11.4991
调试	-11.4993
本身就	-11.4994
赣	-11.4994
点头	-11.4995
测定	-11.4995
准确的	-11.4996
受不了	-11.4997
祖父	-11.4997
未成年人	-11.4997
的帮助	-11.4999
停下来	-11.5
的现实	-11.5002
这只是	-11.5003
残留	-11.5005
用量	-11.5005
所带来的	-11.5007
卸	-11.5007
日渐	-11.5008
走的	-11.5009
隐瞒	-11.5009
提议	-11.5009
课后	-11.5011
宣告	-11.5012
到时候	-11.5014
吸引力	-11.5015
有期徒刑	-11.5015
不忘	-11.5016
PPT	-11.5018
读过	-11.5018
淳	-11.5019
环绕	-11.5019
找回	-11.5019
什么意思	-11.502
好感	-11.5021
实实在在	-11.5022
莹	-11.5022
证明了	-11.5022
米兰	-11.5023
好象	-11.5023
老实	-11.5024
高新区	-11.5024
叠加	-11.5024
今生	-11.5025
影响到	-11.5025
樱	-11.5025
糟糕	-11.5025
富豪	-11.503
兜	-11.5031
还说	-11.5032
的创新	-11.5034
陈列	-11.5037
一再	-11.5038
清爽	-11.5041
外人	-11.5041
发生变化	-11.5042
讲师	-11.5044
患者的	-11.5045
之分	-11.5046
民营	-11.5046
阮	-11.5046
徒步	-11.5048
神圣	-11.5048
打架	-11.5049
也因此	-11.5051
长大了	-11.5052
日月	-11.5052
中秋	-11.5054
姥姥	-11.5054
最近的	-11.5055
庵	-11.5056
烧烤	-11.5056
烛	-11.5056
诱	-11.5056
降低了	-11.5057
定点	-11.5057
领土	-11.5057
着他	-11.5057
生命中	-11.5061
唉	-11.5064
往前	-11.5064
错过了	-11.5065
既要	-11.5065
评判	-11.5066
破解	-11.5066
灌溉	-11.5068
-2	-11.5069
1988	-11.507
我们必须	-11.5071
番茄	-11.5073
分局	-11.5073
振兴	-11.5073
赚了	-11.5077
对我来说	-11.5077
涓	-11.5078
愣	-11.5079
企业发展	-11.508
极具	-11.5081
随手	-11.5081
鉴别	-11.5082
财务管理	-11.5082
的挑战	-11.5083
眼看	-11.5084
哼	-11.5087
下达	-11.5088
线程	-11.5089
手持	-11.509
其中包括	-11.5091
赞助	-11.5091
油脂	-11.5091
科幻	-11.5094
好莱坞	-11.5095
队的	-11.5095
战友	-11.5096
以及其他	-11.5098
迷惑	-11.5099
对称	-11.51
的建筑	-11.51
大了	-11.5102
朔	-11.5102
红色的	-11.5103
里面有	-11.5104
心动	-11.5107
明珠	-11.5108
群岛	-11.5109
诏	-11.511
人流	-11.511
清凉	-11.5111
的缘故	-11.5111
魔鬼	-11.5111
学习成绩	-11.5112
疮	-11.5112
知晓	-11.5114
在上面	-11.5114
病房	-11.5115
一线城市	-11.5116
防晒	-11.5118
有名的	-11.5119
价钱	-11.512
分数线	-11.5121
饮酒	-11.5121
旬	-11.5121
的确是	-11.5122
打动	-11.5123
但是我们	-11.5125
一般在	-11.5125
得住	-11.5126
不重要	-11.5127
钓鱼	-11.5128
看了看	-11.5128
务实	-11.5129
录制	-11.5131
工程建设	-11.5131
毅力	-11.5133
强劲	-11.5134
又名	-11.5136
说的话	-11.5137
颇为	-11.5137
用电	-11.5138
甚至连	-11.5139
上层	-11.5139
他想	-11.514
民航	-11.514
的行动	-11.5142
怜	-11.5142
嚼	-11.5143
额头	-11.5144
可知	-11.5144
搞笑	-11.5144
拿到了	-11.5145
注销	-11.5146
收录	-11.5146
自带	-11.5146
了她	-11.5147
想知道	-11.5148
上百	-11.5148
忽悠	-11.5153
之法	-11.5154
谁也	-11.5155
设备的	-11.5158
先生的	-11.516
冠心病	-11.516
培养学生	-11.5161
艰辛	-11.5161
篇文章	-11.5161
但其实	-11.5162
分区	-11.5162
升降	-11.5162
心理咨询	-11.5166
天津市	-11.5169
时间段	-11.5172
读了	-11.5172
开发的	-11.5173
是什么呢	-11.5174
探险	-11.5174
才是真正	-11.5174
硫	-11.5175
一词	-11.5177
锌	-11.5177
吃到	-11.5177
通胀	-11.5178
正因为	-11.5179
渔业	-11.5182
绑架	-11.5182
自然而然	-11.5183
只知道	-11.5183
问题上	-11.5183
减弱	-11.5183
▁8	-11.5184
77	-11.5185
69	-11.5186
圣诞	-11.5187
泄露	-11.5187
自然科学	-11.5189
妍	-11.519
说明了	-11.519
所以他	-11.5191
的培养	-11.5192
公证	-11.5193
道家	-11.5194
的节奏	-11.5195
犯了	-11.5195
陀	-11.5196
自己做	-11.5198
肠道	-11.5198
的经典	-11.5198
要先	-11.5201
子弟	-11.5201
告诉她	-11.5202
极了	-11.5202
在接受	-11.5205
电竞	-11.5207
去看看	-11.5208
最后一次	-11.5208
睡前	-11.5209
母亲的	-11.5209
新品	-11.5209
悲观	-11.5209
直达	-11.521
不用担心	-11.5212
弱势	-11.5214
开出	-11.5217
瞄准	-11.5218
厦	-11.5218
解题	-11.5219
不解	-11.5219
如果要	-11.522
逍遥	-11.5222
热带	-11.5225
对他的	-11.5226
下图	-11.5228
应有的	-11.523
有时间	-11.523
不认识	-11.5231
讽刺	-11.5231
生产基地	-11.5231
苦恼	-11.5233
橡胶	-11.5233
杀害	-11.5236
六大	-11.5237
也同样	-11.5238
货币政策	-11.5239
丨	-11.5239
▁第一节	-11.524
上周	-11.524
时要	-11.524
一开始就	-11.524
可以做	-11.5241
析	-11.5241
对企业	-11.5244
ca	-11.5244
福特	-11.5244
锈	-11.5244
在自己	-11.5245
有限的	-11.5245
疏通	-11.5246
认为是	-11.5246
匈奴	-11.5246
无数次	-11.525
可供	-11.5251
城墙	-11.5253
的温度	-11.5253
低点	-11.5254
有价值的	-11.5257
这样的话	-11.5258
相伴	-11.526
平台的	-11.5264
的训练	-11.5265
的最好	-11.5265
安宁	-11.5266
不动产	-11.5266
他却	-11.5267
完成的	-11.5268
孕育	-11.5269
ho	-11.527
平米	-11.527
与发展	-11.5271
双重	-11.5271
海口	-11.5272
树叶	-11.5272
侦察	-11.5273
她还	-11.5273
怎	-11.5275
一分钟	-11.5278
大纲	-11.5279
人生中	-11.528
的伟大	-11.5281
不足以	-11.5281
比别人	-11.5281
红旗	-11.5281
庭院	-11.5283
但实际上	-11.5284
沐	-11.5285
坐下	-11.5285
糊涂	-11.5288
马克思	-11.5288
初次	-11.529
迪士尼	-11.5291
冲刺	-11.5292
。02	-11.5297
竣工	-11.5297
万元的	-11.5299
伪造	-11.53
区域内	-11.5301
素质教育	-11.5303
教你	-11.5304
活在	-11.5305
减少了	-11.5306
前端	-11.5307
轧	-11.5308
。19	-11.531
彼得	-11.5312
推崇	-11.5313
四五	-11.5313
佛山	-11.5313
女主角	-11.5313
学好	-11.5314
生化	-11.5314
的损失	-11.5314
组件	-11.5314
瓷器	-11.5315
分钟后	-11.5315
今晚	-11.5316
运势	-11.5316
烈士	-11.5316
成佛	-11.5318
说你	-11.5319
还不是	-11.532
始于	-11.5321
自发	-11.5322
-20	-11.5322
首页	-11.5322
荷花	-11.5322
拽	-11.5326
这让	-11.5326
pa	-11.5327
玩游戏	-11.5327
毕业于	-11.5328
想不到	-11.5329
免疫力	-11.5329
就会发现	-11.5329
的几个	-11.5331
野生动物	-11.5332
赋能	-11.5333
的良好	-11.5333
他家	-11.5335
人民医院	-11.5336
高贵	-11.5338
▁­	-11.5339
法定代表	-11.534
喜好	-11.5341
大局	-11.5342
发声	-11.5342
昔	-11.5342
发展到	-11.5343
摄影师	-11.5343
国家队	-11.5343
家务	-11.5344
景象	-11.5344
检索	-11.5345
变得更	-11.5345
暴跌	-11.5347
确定的	-11.5347
增进	-11.5347
听听	-11.5347
帧	-11.5347
降临	-11.5348
员工的	-11.5351
可以考虑	-11.5351
灰尘	-11.5352
上大学	-11.5352
进取	-11.5352
▁负责	-11.5354
往年	-11.5354
出生于	-11.5354
坏事	-11.5355
这方面	-11.5355
定时	-11.5355
胡萝卜	-11.5356
感觉自己	-11.5356
都必须	-11.5357
的症状	-11.536
地貌	-11.536
构思	-11.536
相近	-11.5362
所长	-11.5362
的主	-11.5362
粒子	-11.5363
es	-11.5364
古今	-11.5366
鼠标	-11.5366
开辟	-11.5367
来实现	-11.5368
赶上	-11.5368
六月	-11.5369
孵化	-11.537
把这	-11.5371
的色彩	-11.5375
出土	-11.5376
要不	-11.5377
核查	-11.5379
建有	-11.5381
录像	-11.5381
少儿	-11.5383
二手车	-11.5384
跨界	-11.5384
爱我	-11.5385
涂料	-11.5386
的体验	-11.5386
和他的	-11.5386
下沉	-11.5387
转型升级	-11.5387
文物保护	-11.5388
保护区	-11.5388
第二年	-11.5389
显示出	-11.5389
尤其是在	-11.539
银行业	-11.539
照射	-11.5391
国债	-11.5391
是美国	-11.5392
执政	-11.5392
声誉	-11.5395
亲友	-11.5395
的姿态	-11.5395
高出	-11.5397
有情	-11.5398
的差距	-11.5398
捞出	-11.54
的婚姻	-11.54
是不能	-11.5401
两面	-11.5402
当晚	-11.5403
我却	-11.5403
吃得	-11.5404
是人类	-11.5405
相见	-11.5405
资源的	-11.5409
牌照	-11.5412
拒绝了	-11.5413
火力	-11.5413
报刊	-11.5413
期盼	-11.5416
▁s	-11.5417
皓	-11.5418
拓宽	-11.5419
的控制	-11.5419
非常高	-11.5419
千金	-11.542
年至	-11.5421
配音	-11.5423
制造商	-11.5423
时就	-11.5423
金叉	-11.5424
茫茫	-11.5427
63	-11.5429
平庸	-11.5431
舌头	-11.5431
关注的	-11.5431
你喜欢	-11.5432
中国企业	-11.5433
▁d	-11.5434
攒	-11.5435
米饭	-11.5437
▁第二节	-11.5438
li	-11.544
后又	-11.5441
长期的	-11.5441
登山	-11.5443
可笑	-11.5445
年轻时	-11.5445
人也	-11.5445
不好的	-11.5446
的人来说	-11.5449
背上	-11.5449
一粒	-11.545
贸	-11.5453
就跟	-11.5454
规章制度	-11.5455
越来越少	-11.5455
犯错	-11.5457
新西兰	-11.5458
绿豆	-11.5459
肤色	-11.5461
残忍	-11.5461
最简单的	-11.5461
薪资	-11.5462
现在我	-11.5463
;2	-11.5463
新浪	-11.5464
反感	-11.5464
珊	-11.5465
舜	-11.5465
经验和	-11.5467
业余	-11.5467
沿途	-11.5468
抚养	-11.5468
戴着	-11.547
梳	-11.547
而出	-11.5472
大便	-11.5472
禅师	-11.5475
行车	-11.5476
非常大	-11.5476
角度来看	-11.5476
魁	-11.5478
江西省	-11.5479
注意的是	-11.5479
励志	-11.5479
口头	-11.5479
多余的	-11.5479
翰	-11.5481
升华	-11.5481
政策的	-11.5482
进球	-11.5483
风貌	-11.5486
他要	-11.5487
保卫	-11.5487
号召	-11.5488
下山	-11.5489
凹	-11.549
下一	-11.549
的特色	-11.5491
惊人的	-11.5491
由此可见	-11.5494
长相	-11.5494
我所	-11.5495
计较	-11.5499
召集	-11.5501
项羽	-11.5502
常有	-11.5505
宫殿	-11.5505
这个故事	-11.5506
的资源	-11.5506
泥土	-11.5506
不给	-11.5507
的青春	-11.5508
占地面积	-11.5508
匪	-11.5509
石化	-11.5509
交际	-11.551
美术馆	-11.551
手续费	-11.5511
深厚	-11.5511
总数	-11.5512
一瞬间	-11.5513
村落	-11.5514
领悟	-11.5514
雷锋	-11.5514
发展方向	-11.5516
触及	-11.5517
合金	-11.5517
纯净	-11.5517
挂钩	-11.5517
物理学	-11.5517
是她	-11.5519
也正是	-11.5519
韭菜	-11.552
得益于	-11.5521
脑子里	-11.5521
得太	-11.5521
企业和	-11.5522
的证据	-11.5524
最开始	-11.5525
有三	-11.5527
互联	-11.5529
屋子	-11.5529
在内	-11.5531
试行	-11.5534
地段	-11.5534
代表了	-11.5538
然后在	-11.5539
茜	-11.5539
兑换	-11.5542
新颖	-11.5543
党委书记	-11.5543
精密	-11.5545
的品质	-11.5546
不是你	-11.5547
此人	-11.5548
漫步	-11.5548
这种人	-11.5549
光电	-11.555
采摘	-11.5552
不必要的	-11.5554
地去	-11.5555
洋葱	-11.5555
不要再	-11.5555
强国	-11.5557
不太好	-11.5557
辑	-11.5557
炳	-11.5558
该怎么	-11.5558
能达到	-11.5559
曾任	-11.556
很远	-11.5561
砌	-11.5561
经济学家	-11.5562
升值	-11.5564
克思主义	-11.5564
等候	-11.5565
国道	-11.5566
监视	-11.5566
垒	-11.5566
不管你	-11.5567
可能有	-11.5567
总能	-11.5567
借钱	-11.5569
跟她	-11.557
流域	-11.5571
这部电影	-11.5571
选定	-11.5572
祝你	-11.5573
又开始	-11.5573
的数字	-11.5574
着自己	-11.5575
宣称	-11.5576
波兰	-11.5577
龚	-11.5578
楚国	-11.5579
欧雅泊思	-11.5579
哟	-11.558
能得到	-11.5581
树林	-11.5583
万多	-11.5584
指望	-11.5586
后方	-11.5587
这样一来	-11.559
脱贫攻坚	-11.5591
环球	-11.5591
那条	-11.5591
的准备	-11.5593
千米	-11.5594
必然会	-11.5595
小女孩	-11.5596
无助	-11.5597
终究	-11.5597
名言	-11.5599
本案	-11.5599
杜绝	-11.5599
未曾	-11.5599
新娘	-11.56
动人	-11.56
打破了	-11.5601
经营管理	-11.5601
十分钟	-11.5601
糯米	-11.5602
山下	-11.5602
也一样	-11.5603
芒	-11.5604
PC	-11.5606
数目	-11.5606
朗读	-11.5606
邪恶	-11.5608
出品	-11.5609
契	-11.561
为他们	-11.561
翅膀	-11.5611
渲染	-11.5611
边上	-11.5613
的缺点	-11.5613
但是你	-11.5614
遗迹	-11.5614
腊	-11.5614
精彩的	-11.5614
卖掉	-11.5615
广阔	-11.5615
的各项	-11.5615
最强	-11.5616
全镇	-11.5616
的消费	-11.5616
再也没有	-11.5617
并于	-11.5618
供需	-11.5619
在职	-11.5619
展会	-11.562
我不会	-11.562
no	-11.5622
仪表	-11.5622
最先	-11.5623
屑	-11.5624
军官	-11.5624
壁垒	-11.5624
亲手	-11.5625
步兵	-11.5625
沮丧	-11.5629
列为	-11.563
对学生	-11.563
旅馆	-11.563
起来的	-11.5631
这首歌	-11.5632
的结局	-11.5632
自已	-11.5633
制止	-11.5634
师资	-11.5635
泳	-11.5635
矿产资源	-11.5636
会遇到	-11.5636
这个时代	-11.5638
成功率	-11.564
微观	-11.5641
口袋	-11.5641
绞	-11.5642
忠实	-11.5642
中国文化	-11.5643
丹田	-11.5645
他们也	-11.5646
胸怀	-11.5647
没啥	-11.5647
并不会	-11.5649
的美丽	-11.5649
真情	-11.565
百合	-11.5651
平凡的	-11.5651
那儿	-11.5654
骏	-11.5655
火烧	-11.5656
组长	-11.5656
单个	-11.5656
怎么可能	-11.5657
因为没有	-11.5657
打断	-11.5658
患有	-11.5659
精通	-11.5659
博览会	-11.5662
一则	-11.5662
战斗力	-11.5664
犹太人	-11.5665
的特殊	-11.5667
辱	-11.5667
水稻	-11.5669
四月	-11.5672
而我们	-11.5674
企业管理	-11.5674
牵引	-11.5675
拧	-11.5676
遇上	-11.5676
肉体	-11.5676
发布会	-11.5677
马克	-11.5678
已然	-11.5679
培训班	-11.5679
喀	-11.5679
嗣	-11.5679
天文	-11.568
为企业	-11.568
我国的	-11.5682
群里	-11.5682
为主要	-11.5684
方法是	-11.5685
的危险	-11.5687
欧阳	-11.5689
满分	-11.5689
的一项	-11.5693
们都	-11.5693
红血丝	-11.5696
把孩子	-11.5696
mi	-11.5697
山谷	-11.5697
风采	-11.5698
疤痕	-11.57
主线	-11.57
才华	-11.5701
户型	-11.5701
月饼	-11.5701
我就是	-11.5703
影院	-11.5703
实体经济	-11.5704
水下	-11.5706
打磨	-11.5706
日晚	-11.5708
总投资	-11.5708
剧场	-11.5709
应注意	-11.5709
还想	-11.571
见解	-11.5711
这辈子	-11.5711
培养孩子	-11.5712
可通过	-11.5713
有的是	-11.5713
行事	-11.5714
样品	-11.5716
览	-11.5718
有任何	-11.5718
面条	-11.5719
发烧	-11.572
gt	-11.572
问了	-11.5721
一书	-11.5721
这对于	-11.5723
有三个	-11.5724
拖延	-11.5725
家装	-11.5726
的一天	-11.5727
最难	-11.5727
教研	-11.5728
直升机	-11.573
在该	-11.573
自然是	-11.573
紧接着	-11.5731
胖子	-11.5731
重疾险	-11.5731
上台	-11.5732
现存	-11.5737
一般都是	-11.5738
轨道交通	-11.5738
昨晚	-11.5739
详	-11.5739
举个例子	-11.574
十字	-11.5743
各家	-11.5744
作为一名	-11.5746
直接影响	-11.5747
破裂	-11.5747
庐	-11.5747
顺势	-11.5749
买单	-11.5751
的研发	-11.5752
本着	-11.5754
爱护	-11.5755
凭什么	-11.5756
禁忌	-11.5757
不掉	-11.5757
为她	-11.5758
第二届	-11.5758
一个好的	-11.5759
确切	-11.576
接下来的	-11.5761
幼稚	-11.5761
蝉	-11.5762
有帮助	-11.5762
倒闭	-11.5763
习题	-11.5763
的形成	-11.5763
动荡	-11.5764
毕竟是	-11.5764
快要	-11.5764
尽情	-11.5765
渗	-11.5766
给学生	-11.5766
市场规模	-11.5766
销售人员	-11.5766
惯	-11.5766
在当地	-11.5768
▁据	-11.5768
我爱	-11.5769
妨碍	-11.577
顽强	-11.577
:30	-11.5772
建仓	-11.5774
忄生	-11.5775
抗拒	-11.5775
振动	-11.5775
不合理	-11.5777
大都	-11.5777
冲洗	-11.5778
1991	-11.5778
而生	-11.5779
大体	-11.5781
詹姆斯	-11.5781
借款人	-11.5782
新车	-11.5782
十多年	-11.5783
光伏	-11.5783
厨师	-11.5784
相关规定	-11.5784
工序	-11.5785
的一大	-11.5785
短板	-11.5786
帮助你	-11.5786
使自己	-11.5787
主办	-11.5787
骨骼	-11.5788
相亲	-11.5788
对孩子的	-11.5788
无敌	-11.5789
建议大家	-11.5791
建立健全	-11.5795
车内	-11.5797
了一种	-11.5797
对这个	-11.5797
加水	-11.5798
声称	-11.5798
看着我	-11.58
整洁	-11.5801
不理解	-11.5801
笔墨	-11.5802
金融服务	-11.5803
况且	-11.5804
雯	-11.5804
檐	-11.5804
单位的	-11.5806
值得注意	-11.5806
意念	-11.5806
特别是在	-11.5807
实在太	-11.5807
奢侈品	-11.5808
中学生	-11.5808
想象力	-11.5809
迟到	-11.5809
庶	-11.5809
收到了	-11.581
1200	-11.5811
观望	-11.5814
不等	-11.5815
华尔街	-11.5815
替换	-11.5816
稳步	-11.5817
住房公积	-11.5821
突击	-11.5822
现代人	-11.5822
实惠	-11.5822
奥巴马	-11.5823
但对	-11.5823
我们已经	-11.5824
一年的	-11.5824
一小时	-11.5824
口气	-11.5825
逐年	-11.5825
积蓄	-11.5826
的妈妈	-11.5826
有信心	-11.5828
低估	-11.5828
使者	-11.5831
海量	-11.5831
博文	-11.5833
乘车	-11.5835
耗费	-11.5836
噪声	-11.5836
呕吐	-11.5837
电商平台	-11.5838
位居	-11.5838
的策略	-11.5839
的氛围	-11.5839
越发	-11.5839
华东	-11.584
以防	-11.584
必备	-11.5842
宏观经济	-11.5843
。03	-11.5844
水量	-11.5847
优惠政策	-11.5847
代表作	-11.5847
把他们	-11.5847
预先	-11.5848
他们对	-11.5849
高空	-11.585
贯彻执行	-11.5851
耽误	-11.5853
类的	-11.5856
详情	-11.5856
自来水	-11.5857
领导下	-11.5859
的痕迹	-11.586
互助	-11.5861
控制系统	-11.5864
向你	-11.5865
沿线	-11.5865
批次	-11.5865
本国	-11.5866
考证	-11.5867
朴素	-11.5868
却发现	-11.5868
丫	-11.5869
自古	-11.5869
之势	-11.5874
的技巧	-11.5874
禽	-11.5876
的主体	-11.5877
赞同	-11.5878
笔画	-11.5878
头条	-11.588
在新	-11.5881
椎	-11.5883
这个地方	-11.5883
160	-11.5887
ie	-11.5887
冉	-11.5888
让您	-11.5888
老爸	-11.5889
台北	-11.5889
火花	-11.589
白领	-11.589
如果他	-11.5891
喘	-11.5892
的处理	-11.5893
不变的	-11.5893
而来的	-11.5893
花样	-11.5894
升起	-11.5895
凶手	-11.5895
窜	-11.5897
写道	-11.5897
亦可	-11.5899
歼	-11.5901
运河	-11.5901
传闻	-11.5904
视线	-11.5907
炫耀	-11.5907
蘸	-11.5908
简书	-11.5908
消费品	-11.5908
校友	-11.5909
首选	-11.5911
酮	-11.5911
届时	-11.5913
主营业务	-11.5914
中国传统	-11.5915
郁闷	-11.5916
一年级	-11.5917
首付	-11.5917
通知书	-11.5917
了这个	-11.5918
静静地	-11.592
丰富多彩	-11.5921
直觉	-11.5922
口号	-11.5922
老了	-11.5923
go	-11.5923
毛利率	-11.5924
例外	-11.5924
知识和	-11.5924
前线	-11.5924
又一个	-11.5924
说要	-11.5925
无形	-11.5925
的小伙伴	-11.5927
写过	-11.5928
桓	-11.5929
对了	-11.5929
起草	-11.593
那个人	-11.593
纺	-11.5933
我用	-11.5934
急于	-11.5935
一点都不	-11.5935
一回	-11.5939
溶解	-11.594
战法	-11.594
奴隶	-11.594
研究成果	-11.5941
演化	-11.5942
成为中国	-11.5942
峰会	-11.5942
小姑娘	-11.5943
君主	-11.5943
湿润	-11.5945
艇	-11.5946
阻挡	-11.5949
都想	-11.5949
空气中	-11.5949
壮大	-11.5949
馨	-11.595
当局	-11.595
招募	-11.5951
比亚迪	-11.5951
产业园	-11.5952
防腐	-11.5953
这么大	-11.5953
的信念	-11.5953
急需	-11.5954
也不可能	-11.5954
掏出	-11.5956
本届	-11.5956
难得的	-11.5958
时任	-11.5959
食欲	-11.596
好在	-11.5962
全社会	-11.5962
et	-11.5964
大王	-11.5964
可根据	-11.5965
嘴唇	-11.5965
每次都	-11.5967
督导	-11.5968
凿	-11.5969
泣	-11.5969
的经营	-11.5969
图片来源	-11.597
利于	-11.597
遏制	-11.5971
找我	-11.5971
就觉得	-11.5972
问答	-11.5973
内有	-11.5974
掩饰	-11.5976
饥饿	-11.5978
个人信息	-11.5978
从而使	-11.5978
入境	-11.5979
做好了	-11.5979
重生	-11.5979
虚弱	-11.598
雍	-11.598
中标	-11.598
深深地	-11.5981
捷径	-11.5982
作为一种	-11.5982
赞叹	-11.5982
留存	-11.5983
尽早	-11.5986
受害人	-11.5987
等多个	-11.5987
虔诚	-11.5989
不一致	-11.5989
推测	-11.5989
只得	-11.599
新华社	-11.5991
了大量的	-11.5992
投入到	-11.5994
公开招聘	-11.5995
的标志	-11.5995
的了解	-11.5995
哪有	-11.5996
等部门	-11.5998
华北	-11.5999
锚	-11.6001
还是比较	-11.6001
棉花	-11.6002
领导的	-11.6002
充当	-11.6003
回想	-11.6003
别说	-11.6004
问她	-11.6004
金山	-11.6005
79	-11.6006
就用	-11.6007
政府部门	-11.6008
家庭的	-11.6008
兵力	-11.601
更低	-11.601
挂着	-11.601
客栈	-11.601
成一个	-11.6011
成都市	-11.6011
不求	-11.6012
躲在	-11.6013
想必	-11.6014
这几天	-11.6014
戚	-11.6014
欣慰	-11.6015
还包括	-11.6015
的资产	-11.6017
凄	-11.6017
农家	-11.6018
▁天	-11.602
做梦	-11.602
会引起	-11.6021
表白	-11.6021
何以	-11.6023
款项	-11.6025
树上	-11.6025
总面积	-11.6025
一个星期	-11.6029
内侧	-11.6031
歧视	-11.6031
作出了	-11.6034
认识的	-11.6036
枸杞	-11.6039
纳米	-11.6039
赞赏	-11.6039
搞得	-11.6039
•	-11.604
留下来	-11.604
全景	-11.604
"-	-11.604
1980	-11.6041
货车	-11.6041
了大量	-11.6041
忍耐	-11.6041
高效的	-11.6043
的交流	-11.6044
的情景	-11.6044
市场竞争	-11.6045
高频	-11.6047
劣势	-11.6048
四是	-11.6048
的信号	-11.605
的同事	-11.6051
图纸	-11.6051
并且在	-11.6051
就能够	-11.6052
写着	-11.6052
持仓	-11.6053
预习	-11.6053
锯	-11.6055
国学	-11.6056
迫使	-11.6056
大专	-11.6057
语气	-11.6059
源自	-11.6059
科学发展	-11.6059
链条	-11.606
运动会	-11.606
的空气	-11.6061
这个项目	-11.6061
名利	-11.6062
半个	-11.6062
惊艳	-11.6062
淡化	-11.6062
的保护	-11.6063
形成一个	-11.6065
媒体报道	-11.6067
力学	-11.6067
办案	-11.6068
屏障	-11.6069
客户提供	-11.607
高尚	-11.6072
130	-11.6072
的天空	-11.6072
中国大陆	-11.6073
吓得	-11.6074
社会各界	-11.6075
一直没有	-11.6075
基数	-11.6075
为由	-11.6075
诗意	-11.6076
苍白	-11.6077
盛行	-11.6077
独一无二	-11.6077
务必	-11.6078
庄园	-11.6078
酯	-11.6079
纪念馆	-11.6079
想让	-11.608
台词	-11.6081
新鲜的	-11.6082
私募	-11.6084
金银	-11.6084
敦煌	-11.6085
聂	-11.6086
本公司	-11.6086
财运	-11.6087
耳边	-11.6088
的房间	-11.6089
的老人	-11.609
衍生	-11.609
会很	-11.6091
九月	-11.6093
光彩	-11.6093
所以你	-11.6093
对社会	-11.6093
立案	-11.6093
自信心	-11.6095
电影节	-11.6095
生物学	-11.6096
一出	-11.6096
pc	-11.6096
既能	-11.6098
的念头	-11.6099
知己	-11.6101
马上就	-11.6101
夺得	-11.6102
中国画	-11.6102
搬到	-11.6102
蜘蛛	-11.6106
意境	-11.6106
年上半年	-11.6107
易于	-11.6107
什么都不	-11.6107
清香	-11.6109
的案例	-11.6109
的家长	-11.6111
的英雄	-11.6112
时间里	-11.6115
氧气	-11.6116
纵向	-11.6116
听完	-11.6117
期权	-11.6117
这是我们	-11.6118
蘑菇	-11.6118
特别好	-11.6119
的代价	-11.612
后勤	-11.6122
半个小时	-11.6122
的那一	-11.6122
照样	-11.6122
标杆	-11.6123
行政执法	-11.6123
不是因为	-11.6124
铸造	-11.6126
发光	-11.6127
一对一	-11.6128
单车	-11.6128
学霸	-11.6129
踏上	-11.613
青睐	-11.613
哪儿	-11.6131
▁关于	-11.6131
牢牢	-11.6135
可靠的	-11.6137
出道	-11.6137
令我	-11.6139
翅	-11.6141
洗衣机	-11.6142
中长期	-11.6143
游人	-11.6144
近乎	-11.6145
什么事情	-11.6146
剖析	-11.6146
好好的	-11.6146
你已经	-11.6146
新房	-11.6146
不值得	-11.6148
之物	-11.6148
与管理	-11.6149
奔波	-11.6151
震动	-11.6151
规避	-11.6151
延安	-11.6155
和生活	-11.6155
坯	-11.6156
自此	-11.6157
交接	-11.6157
▁三	-11.6157
二十一	-11.616
开发者	-11.616
的女子	-11.6161
换成	-11.6161
不怎么	-11.6162
在学习	-11.6162
蕊	-11.6162
〔	-11.6162
胶囊	-11.6165
营业执照	-11.6165
横盘	-11.6166
岔	-11.6167
老师说	-11.6167
用餐	-11.617
你不能	-11.617
比赛中	-11.6172
我将	-11.6175
本专业	-11.6175
模样	-11.6175
因为这	-11.6176
一路上	-11.6176
特质	-11.6176
关门	-11.6176
三等奖	-11.6176
控制器	-11.6178
旅游业	-11.618
飞翔	-11.6181
幕后	-11.6181
草案	-11.6182
肢体	-11.6183
比较高	-11.6184
决不	-11.6184
估算	-11.6184
诚意	-11.6185
脸部	-11.6188
扭转	-11.619
不见了	-11.6191
冷水	-11.6192
自然会	-11.6193
绍兴	-11.6194
手腕	-11.6195
觉得很	-11.6197
一年多	-11.6198
的一句话	-11.6198
1949	-11.6198
的综合	-11.6199
多重	-11.62
第二条	-11.6201
来往	-11.6201
就象	-11.6202
满脸	-11.6202
春晚	-11.6205
每一天	-11.6206
叹息	-11.6208
〔201	-11.6208
细化	-11.621
但现在	-11.621
荣誉称号	-11.621
推开	-11.6211
售后	-11.6212
街上	-11.6212
89	-11.6212
痊愈	-11.6212
交易的	-11.6213
包子	-11.6213
尚书	-11.6213
分布式	-11.6215
新陈代谢	-11.6216
第一部	-11.6216
兼任	-11.6216
了些	-11.6216
这是个	-11.6217
▁上海	-11.6219
所示	-11.6219
赢家	-11.622
寝室	-11.6221
的积累	-11.6223
吉他	-11.6225
刑事责任	-11.6225
和方法	-11.6226
73	-11.6226
坎坷	-11.6228
开启了	-11.6228
看见了	-11.6228
讲故事	-11.623
di	-11.623
进入到	-11.6231
下肢	-11.6231
你是不是	-11.6232
打扰	-11.6232
腰部	-11.6236
灾害	-11.6236
二手房	-11.6236
文化产业	-11.6237
走出去	-11.6237
限定	-11.6237
公约	-11.6239
是无法	-11.624
风机	-11.6241
起飞	-11.6241
一大堆	-11.6241
哪一个	-11.6241
金融市场	-11.6242
简易	-11.6246
汽油	-11.6246
浓缩	-11.6246
商业化	-11.6247
▁作者	-11.6248
用户体验	-11.625
雪花	-11.625
等各种	-11.625
光学	-11.6252
邮票	-11.6252
不时	-11.6252
细微	-11.6256
不是为了	-11.6256
凭着	-11.6256
在你的	-11.6257
板上	-11.6258
投标	-11.6258
最喜欢的	-11.6261
祖先	-11.6261
错题	-11.6261
赚钱的	-11.6261
之一的	-11.6262
肩膀	-11.6262
关税	-11.6262
急救	-11.6263
琦	-11.6263
是基于	-11.6263
佣金	-11.6263
us	-11.6264
提炼	-11.6264
人体的	-11.6265
战斗机	-11.6266
不仅可以	-11.6266
涨价	-11.6266
的定位	-11.6266
秘诀	-11.6267
拙	-11.6267
但没有	-11.6269
92	-11.627
根源	-11.6271
辨别	-11.6272
下面是	-11.6274
慌	-11.6274
复工	-11.6274
使你	-11.6276
接连	-11.6276
1985	-11.6278
又说	-11.6278
髓	-11.6279
杯子	-11.628
有事	-11.6281
脱颖而出	-11.6281
来形容	-11.6281
芙	-11.6282
在这方面	-11.6282
志愿服务	-11.6282
兑现	-11.6282
经典的	-11.6283
育儿	-11.6283
得起	-11.6283
是国内	-11.6284
事迹	-11.6284
要及时	-11.6285
牢固	-11.6285
泉州	-11.6287
调料	-11.6288
万分	-11.6289
滋	-11.629
科室	-11.629
流淌	-11.6291
元件	-11.6292
成功了	-11.6292
的提高	-11.6293
服务于	-11.6294
常人	-11.6296
锅中	-11.6298
从业者	-11.6298
我们不能	-11.6298
欺诈	-11.6299
失控	-11.6299
所处的	-11.63
制作的	-11.6301
打车	-11.6302
都有一个	-11.6303
胯	-11.6303
不同的是	-11.6304
的原理	-11.6305
低温	-11.6305
74	-11.6307
弄得	-11.6307
一切都是	-11.6308
人多	-11.6308
现今	-11.6309
公积金	-11.6309
华盛顿	-11.6309
意义的	-11.631
礼拜	-11.6311
谨	-11.6312
进行分析	-11.6312
飞行员	-11.6312
条约	-11.6313
现阶段	-11.6315
回首	-11.6316
上千	-11.6316
世界大战	-11.6316
最关键的	-11.6318
背面	-11.6318
言论	-11.6318
想一想	-11.6318
学长	-11.6319
芦	-11.632
车祸	-11.6326
丹麦	-11.6327
图画	-11.6328
看电影	-11.6328
学堂	-11.6329
前世	-11.633
是用来	-11.6332
呼唤	-11.6332
蹬	-11.6332
支柱	-11.6332
前一天	-11.6333
如实	-11.6333
售后服务	-11.6333
之于	-11.6334
金字塔	-11.6336
而过	-11.6336
可以使	-11.6337
涨停板	-11.6337
它可以	-11.6341
神通	-11.6342
一事	-11.6343
堕落	-11.6345
掌声	-11.6345
主义者	-11.6346
偏见	-11.6348
本科生	-11.6348
才会有	-11.6349
愿你	-11.6349
使用者	-11.635
长长的	-11.635
的平均	-11.635
研究人员	-11.6351
阳县	-11.6353
宰	-11.6358
有这样	-11.636
两端	-11.6361
从根本上	-11.6361
有所不同	-11.6363
极致	-11.6364
寇	-11.6364
敬畏	-11.6369
坏人	-11.637
只能在	-11.6374
as	-11.6374
举行的	-11.6374
严厉	-11.6375
盛大	-11.6375
不仅如此	-11.6376
日照	-11.6376
他从	-11.6377
是完全	-11.6378
提升了	-11.6378
亲属	-11.6379
溅	-11.638
打卡	-11.638
合影	-11.6381
%	-11.6381
辩护	-11.6383
看一看	-11.6384
极力	-11.6385
浮躁	-11.6386
的生存	-11.6388
蜡烛	-11.6388
安利	-11.6388
体现出	-11.6395
总分	-11.6396
三层	-11.6396
擒	-11.6396
丰田	-11.6396
发财	-11.6398
冶	-11.64
产地	-11.6403
带孩子	-11.6403
有毒	-11.6403
光环	-11.6403
必须有	-11.6404
指点	-11.6404
问问	-11.6407
可谓是	-11.6407
尼亚	-11.6408
穿梭	-11.6409
一个好	-11.6413
灭亡	-11.6414
塌	-11.6414
对未来	-11.6414
出任	-11.6414
馅	-11.6418
锥	-11.6419
并用	-11.6419
画像	-11.6419
一个女人	-11.642
断裂	-11.642
周一	-11.642
娅	-11.642
84	-11.6422
炫	-11.6423
国会	-11.6423
合格的	-11.6424
1984	-11.6425
极少	-11.6425
网站上	-11.6427
宫廷	-11.6428
华南	-11.6429
治安	-11.643
这个道理	-11.6431
而无	-11.6433
时分	-11.6434
深厚的	-11.6435
谓之	-11.6436
好运	-11.6437
针灸	-11.6437
笋	-11.644
花瓣	-11.6441
一侧	-11.6442
我最	-11.6442
制剂	-11.6444
的意识	-11.6444
鳞	-11.6444
当然也	-11.6444
的比赛	-11.6445
您好	-11.6446
对这些	-11.6447
你以为	-11.6448
真爱	-11.6449
那么大	-11.645
和朋友	-11.6451
的不是	-11.6452
恰当	-11.6454
哈佛	-11.6455
全书	-11.6455
的影响力	-11.6455
的区域	-11.6456
副本	-11.6456
吸气	-11.6457
对该	-11.6457
我这	-11.6457
也叫	-11.6457
营业税	-11.6458
会议上	-11.6459
水位	-11.646
读到	-11.646
秦国	-11.646
略有	-11.6463
琉璃	-11.6464
的前提	-11.6464
点多	-11.6465
个百分点	-11.6466
在他们	-11.6466
3-5	-11.6466
翻了	-11.6469
又在	-11.647
红枣	-11.6471
是靠	-11.6473
杜甫	-11.6473
大象	-11.6473
上山	-11.6475
连忙	-11.6476
外在	-11.6476
向东	-11.6477
一个字	-11.6477
达人	-11.6477
罕见	-11.6478
银河	-11.6478
骑兵	-11.6478
丰收	-11.6481
之王	-11.6481
的优秀	-11.6482
不理	-11.6482
量的	-11.6483
?」	-11.6484
完后	-11.6485
所用	-11.6485
是世界上	-11.6485
的每一个	-11.6486
想念	-11.6487
心事	-11.6489
何必	-11.6491
可能出现	-11.6491
乃是	-11.6491
它会	-11.6492
考量	-11.6492
没有想到	-11.6492
将要	-11.6492
潮湿	-11.6494
自制	-11.6494
点缀	-11.6496
过失	-11.6496
些什么	-11.6497
屎	-11.6498
协定	-11.6498
就是把	-11.6498
福德	-11.6501
其二	-11.6502
供奉	-11.6502
金色	-11.6504
直辖市	-11.6504
好玩	-11.6504
是由于	-11.6504
长途	-11.6505
你没有	-11.6505
冻结	-11.6505
发觉	-11.6506
主治	-11.651
三者	-11.6511
怎么说	-11.6513
发表了	-11.6515
唱片	-11.6515
墙壁	-11.6516
英格兰	-11.6518
来得	-11.652
风格的	-11.6521
的现状	-11.6522
心理学家	-11.6522
蚀	-11.6522
人参	-11.6523
选出	-11.6525
龙头企业	-11.6525
加分	-11.6525
个子	-11.6526
悄然	-11.6527
阵营	-11.6527
学生在	-11.6527
重要作用	-11.6527
需求的	-11.6528
家用	-11.653
尽头	-11.6532
全场	-11.6533
购物中心	-11.6534
意想不到	-11.6535
房贷	-11.6535
没那么	-11.6536
岐	-11.6537
书法家	-11.6537
暑期	-11.6537
此时的	-11.6539
可怕的	-11.6541
绿地	-11.6541
对人体	-11.6541
楼上	-11.6542
著作权	-11.6543
的权力	-11.6543
冰糖	-11.6544
听众	-11.6544
61	-11.6545
并向	-11.6545
既不	-11.6545
主要的	-11.6546
体量	-11.6548
的地步	-11.6549
陷入了	-11.6549
那我	-11.655
篇幅	-11.6552
副会长	-11.6553
十余	-11.6554
引发了	-11.6556
写到	-11.6556
追寻	-11.6557
借用	-11.6557
万个	-11.6557
一分钱	-11.6558
能有	-11.6561
高一	-11.6562
会更加	-11.6562
确定了	-11.6563
综合素质	-11.6563
世代	-11.6565
第二步	-11.6565
她会	-11.6565
示范区	-11.6565
宝贵的	-11.6566
福音	-11.6566
趴	-11.6566
陨石	-11.6568
趋于	-11.6568
项目管理	-11.6568
某种程度	-11.6569
而行	-11.657
花儿	-11.657
加持	-11.6572
污染物	-11.6572
宝玉	-11.6573
触动	-11.6574
报送	-11.6575
八个	-11.6576
难怪	-11.6576
暴雨	-11.6576
做空	-11.6577
狗狗	-11.6577
行业内	-11.6578
到你	-11.6578
喝茶	-11.6579
考查	-11.6579
司令	-11.6581
催眠	-11.6583
罗汉	-11.6589
口径	-11.659
搭载	-11.6591
吃亏	-11.6596
评级	-11.6597
因为有	-11.6597
追问	-11.6598
欧元	-11.6599
的头发	-11.6599
他所	-11.6599
分行	-11.66
CD	-11.6601
过来的	-11.6601
而现在	-11.6601
的女	-11.6604
冰川	-11.6605
兴建	-11.6606
便利店	-11.6607
大规模的	-11.6607
人大	-11.6608
本品	-11.6608
进士	-11.6609
窍	-11.6609
酬	-11.661
寓	-11.6611
桂花	-11.6612
阎	-11.6612
的规律	-11.6613
放出	-11.6614
车厢	-11.6616
第一家	-11.6616
胡子	-11.6616
尤为	-11.6617
如果想	-11.6618
基建	-11.6619
提案	-11.6619
3:	-11.6619
乌克兰	-11.662
宁愿	-11.662
郝	-11.662
教养	-11.6621
早起	-11.6621
久了	-11.6621
大势	-11.6622
年份	-11.6623
的目的是	-11.6625
着你	-11.6626
具体情况	-11.6627
是你的	-11.6627
巡视	-11.6627
幸福感	-11.6628
大力发展	-11.6629
地把	-11.6629
电视机	-11.663
沫	-11.6631
理学	-11.6631
大大的	-11.6631
支架	-11.6631
火热	-11.6631
减小	-11.6632
和中国	-11.6633
谣言	-11.6633
正文	-11.6633
打得	-11.6633
黑马	-11.6634
那张	-11.6634
椅子	-11.6634
满满的	-11.6635
自己是	-11.6635
上市的	-11.6636
时长	-11.6636
指定的	-11.6638
一说	-11.6638
安全的	-11.6639
不听	-11.6639
德育	-11.664
很多事情	-11.6641
樱花	-11.6641
演艺	-11.6642
纸质	-11.6642
丛书	-11.6642
退役	-11.6642
嘴角	-11.6642
读懂	-11.6644
非常的	-11.6644
被他	-11.6644
在我们的	-11.6646
河边	-11.6646
驶	-11.665
八月	-11.6651
悬崖	-11.6652
的一次	-11.6652
就如同	-11.6652
积极参与	-11.6652
新东方	-11.6654
中专	-11.6655
然后用	-11.6655
的宣传	-11.6655
炸弹	-11.6655
走得	-11.6656
孩子在	-11.6656
ay	-11.6657
定居	-11.6657
的种子	-11.6657
社会上	-11.6657
潜能	-11.6659
议会	-11.6659
保罗	-11.6659
营业收入	-11.6659
完工	-11.666
动静	-11.666
已知	-11.666
记忆力	-11.6664
有大	-11.6665
形体	-11.6665
无意	-11.6665
荆州	-11.6666
磨损	-11.6666
之星	-11.6667
整顿	-11.6667
阙	-11.6667
次会议	-11.6668
很好地	-11.6669
换手率	-11.667
口水	-11.6672
闪电	-11.6674
亦有	-11.6677
贪污	-11.6677
的重大	-11.6677
将领	-11.6677
面试官	-11.6678
外套	-11.6678
伤亡	-11.6679
参展	-11.668
元气	-11.668
统统	-11.6681
想把	-11.6684
数据的	-11.6685
最常见的	-11.6686
凡事	-11.6687
解说	-11.6688
的总	-11.6688
两三	-11.6689
刻画	-11.6689
西红柿	-11.669
权的	-11.6691
就医	-11.6693
行业协会	-11.6693
有人在	-11.6694
诺贝尔	-11.6694
­	-11.6694
黑夜	-11.6695
盛世	-11.6696
得失	-11.6697
CEO	-11.6697
告诉大家	-11.6699
加息	-11.67
下发	-11.6701
面对面	-11.6701
该怎么办	-11.6702
五一	-11.6702
托管	-11.6702
职员	-11.6702
等相关	-11.6703
个多小时	-11.6703
棺	-11.6703
武汉市	-11.6704
反映出	-11.6704
两地	-11.6704
雇佣	-11.6704
税款	-11.6704
行政管理	-11.6704
涉案	-11.6705
三代	-11.6707
项目建设	-11.6707
去皮	-11.6708
想到了	-11.6709
走出来	-11.6711
猿	-11.6712
梓	-11.6713
一点也不	-11.6713
黑眼圈	-11.6713
我之前	-11.6714
钱财	-11.6715
要好	-11.6718
瓶子	-11.6719
揭示	-11.6719
大姐	-11.6723
基督	-11.6724
间隙	-11.6725
永恒的	-11.6725
片子	-11.6725
交通大学	-11.6725
用笔	-11.6726
拇指	-11.6726
是否会	-11.6726
了一条	-11.6727
做为	-11.6727
构筑	-11.6729
大山	-11.673
掀起	-11.6732
盛开	-11.6733
中所	-11.6734
票价	-11.6734
促进了	-11.6734
聪明的	-11.6734
其他国家	-11.6735
开店	-11.6735
化石	-11.6735
大家分享	-11.6736
做大	-11.6736
山药	-11.6736
跟上	-11.6737
侵	-11.6737
带回	-11.6737
忧虑	-11.6737
科学与	-11.6738
私下	-11.6738
件事	-11.6741
科技进步	-11.6741
所见	-11.6742
委副书记	-11.6743
贬	-11.6744
送达	-11.6745
te	-11.6745
地看着	-11.6746
不容	-11.6747
大涨	-11.6749
致命	-11.675
高大	-11.675
熟人	-11.6751
可以理解	-11.6751
积累了	-11.6752
写成	-11.6752
可以是	-11.6752
救济	-11.6752
玩的	-11.6753
彩票	-11.6753
外包	-11.6754
柏林	-11.6755
不同程度	-11.6756
叩	-11.6757
锅里	-11.6757
招商引资	-11.6758
很正常	-11.6759
好像是	-11.6759
短期内	-11.6761
发泄	-11.6761
咯	-11.6762
的季节	-11.6762
育人	-11.6762
车企	-11.6762
小子	-11.6762
技术分析	-11.6762
降温	-11.6762
一大批	-11.6763
送上	-11.6765
写完	-11.6766
脐	-11.6766
质押	-11.6766
层级	-11.6767
旷	-11.6767
分钟左右	-11.6769
地主	-11.677
滚滚	-11.677
过多的	-11.6771
两类	-11.6771
爆款	-11.6772
莫斯科	-11.6776
跌幅	-11.6776
我再	-11.6776
油腻	-11.6777
磁场	-11.6777
拉斯	-11.6778
购置	-11.6779
嵌	-11.678
更多的人	-11.6781
一个国家	-11.6781
撩	-11.6782
两个方面	-11.6783
喇叭	-11.6783
近两年	-11.6784
周五	-11.6785
牢记	-11.6785
九龙	-11.6785
规章	-11.6785
祝愿	-11.6786
使他们	-11.6786
食指	-11.6787
单价	-11.6788
亨	-11.6788
这与	-11.6789
代理商	-11.6789
和完善	-11.6789
还有一种	-11.679
打死	-11.679
被视为	-11.6791
调和	-11.6792
希望自己	-11.6793
心血	-11.6793
对公司	-11.6793
给你们	-11.6794
接过	-11.6794
虽然我	-11.6796
明了	-11.6796
的转变	-11.6797
的新闻	-11.6797
恐龙	-11.6797
占了	-11.6798
它在	-11.6798
转到	-11.6799
触摸	-11.68
ji	-11.68
平整	-11.68
点儿	-11.6801
想起了	-11.6802
○	-11.6802
的难度	-11.6802
老是	-11.6803
惠州	-11.6804
是一场	-11.6805
考入	-11.6806
发扬	-11.6808
的生意	-11.6808
寒假	-11.6808
钻研	-11.6809
闲置	-11.6809
服务平台	-11.6809
刊物	-11.681
一二	-11.6813
体内的	-11.6814
大公司	-11.6815
鉴赏	-11.6815
作品中	-11.6815
山村	-11.6817
政策和	-11.6817
开展了	-11.6817
甚至有	-11.6818
岛屿	-11.6819
迟迟	-11.6819
那一	-11.6821
之称	-11.6823
就不是	-11.6823
管理员	-11.6824
为核心的	-11.6824
的治疗	-11.6824
虚构	-11.6825
在校	-11.6825
用作	-11.6826
开具	-11.6827
倾向于	-11.6828
十里	-11.6829
聊聊	-11.6829
政府的	-11.683
更需要	-11.6831
追随	-11.6831
原先	-11.6831
相邻	-11.6832
小男孩	-11.6832
和别人	-11.6833
救治	-11.6834
薪水	-11.6834
各异	-11.6834
也不敢	-11.6835
延期	-11.6835
小鸟	-11.6836
帖子	-11.6836
影子	-11.6837
用以	-11.6837
。0	-11.6838
孙悟空	-11.6838
静态	-11.6838
市中心	-11.6839
门窗	-11.6839
此种	-11.684
投影	-11.684
风景区	-11.6842
原著	-11.6845
征集	-11.6845
了一场	-11.6845
较长	-11.6846
专业人士	-11.6846
大肠	-11.6846
而是要	-11.6846
于是就	-11.6847
该片	-11.6847
1989	-11.6848
美术学院	-11.6848
sa	-11.6849
汀	-11.685
热线	-11.6852
的大型	-11.6852
大三	-11.6853
年以后	-11.6853
斐	-11.6853
明知	-11.6853
契合	-11.6857
也都是	-11.6857
躲避	-11.6858
奕	-11.6859
死刑	-11.6862
的内在	-11.6863
战国	-11.6863
同时又	-11.6864
为期	-11.6865
难忘	-11.6866
高额	-11.6867
陪你	-11.6867
了一份	-11.6868
中国政府	-11.6869
冷冻	-11.6869
芙蓉	-11.687
传出	-11.687
小店	-11.6871
头晕	-11.6872
。11	-11.6872
就会被	-11.6872
▁对于	-11.6873
能力强	-11.6873
人造	-11.6874
憧憬	-11.6874
有力的	-11.6874
抵御	-11.6876
抽出	-11.6877
命名为	-11.6877
黄山	-11.6878
元钱	-11.6881
感人	-11.6881
低迷	-11.6884
比较容易	-11.6884
身旁	-11.6885
ol	-11.6885
的代表	-11.6885
82	-11.6885
筛	-11.6886
也知道	-11.6886
文化和	-11.6888
为目的	-11.6888
品德	-11.6889
埋怨	-11.6892
淹没	-11.6892
中线	-11.6895
逛街	-11.6897
两千	-11.6897
也越来越	-11.6898
流向	-11.6902
宁可	-11.6902
关羽	-11.6903
光芒	-11.6903
商铺	-11.6903
副局长	-11.6903
之名	-11.6904
得更	-11.6904
开封	-11.6905
这不	-11.6905
在孩子	-11.6905
出版的	-11.6907
跨境	-11.6907
的投资者	-11.6908
边际	-11.691
刻苦	-11.6911
不得不说	-11.6912
的沟通	-11.6912
好坏	-11.6912
教科书	-11.6912
竞选	-11.6913
裁定	-11.6914
而他	-11.6915
京剧	-11.6915
洗手	-11.6915
时而	-11.6915
光照	-11.6916
见效	-11.6916
某一个	-11.6917
行政机关	-11.6917
私信	-11.6919
多少人	-11.6919
人所	-11.6919
跳出	-11.6921
医疗服务	-11.6922
但不能	-11.6925
联手	-11.6925
搞好	-11.6925
一页	-11.6925
介质	-11.6928
集聚	-11.6928
勤劳	-11.6928
不走	-11.6929
肺炎	-11.693
最长	-11.6931
总体规划	-11.6933
一生的	-11.6934
旗帜	-11.6935
万千	-11.6939
皈依	-11.694
叙利亚	-11.694
macd	-11.6942
所言	-11.6942
书上	-11.6943
不完	-11.6943
空前	-11.6944
初试	-11.6944
的老板	-11.6945
鲜活	-11.6946
纯洁	-11.6947
腿部	-11.6948
复仇	-11.6948
熊市	-11.6948
逃跑	-11.6949
抗议	-11.6949
的礼物	-11.6949
校内	-11.6951
榨	-11.6951
高等	-11.6954
反向	-11.6955
切记	-11.6956
派遣	-11.6956
融化	-11.6959
腌	-11.6961
从业	-11.6961
投资的	-11.6964
等情况	-11.6964
了这么多	-11.6964
已在	-11.6966
负责全市	-11.6968
了一遍	-11.6969
批复	-11.6969
他曾	-11.6969
虽然没有	-11.697
表现出来	-11.697
在世界	-11.6971
出头	-11.6972
个国家	-11.6973
控制在	-11.6973
到一个	-11.6974
默默地	-11.6975
的胜利	-11.6976
保健品	-11.6976
而成的	-11.6976
栗	-11.6976
肢	-11.6976
第三条	-11.6977
股东大会	-11.698
这条路	-11.698
成立的	-11.6982
随着时间	-11.6983
同盟	-11.6983
妾	-11.6985
希望你	-11.6986
留住	-11.6987
公里的	-11.6988
城镇化	-11.6991
人民的	-11.6991
的一生	-11.6992
初心	-11.6993
国际贸易	-11.6994
渍	-11.6996
年前的	-11.6996
浓厚	-11.6996
李某	-11.6997
媛	-11.6997
农业生产	-11.6997
酿	-11.7004
万能	-11.7004
毛孔	-11.7005
风筝	-11.7005
笼罩	-11.7008
破了	-11.7009
研讨会	-11.701
是国家	-11.7012
觉醒	-11.7013
建设用地	-11.7015
北斗	-11.7016
听得	-11.7016
无名	-11.7017
之日	-11.7017
轻轻地	-11.7017
再把	-11.7018
满足了	-11.7018
然后把	-11.7019
的方式来	-11.702
指导和	-11.702
飞扬	-11.7021
家企业	-11.7021
胺	-11.7022
矿业	-11.7023
乔治	-11.7024
新农村	-11.7024
箱子	-11.7025
抄袭	-11.7026
ap	-11.7027
拥挤	-11.7029
不善	-11.7031
绑定	-11.7031
痘	-11.7032
应有	-11.7034
派人	-11.7035
▁9	-11.7035
是想	-11.7036
特点是	-11.7036
浇水	-11.7036
奢侈	-11.7037
衍	-11.7039
爻	-11.7039
罪恶	-11.7041
能找到	-11.7041
一战	-11.7042
跳跃	-11.7043
百家	-11.7043
浪费时间	-11.7044
历时	-11.7045
学过	-11.7045
带头	-11.7045
总要	-11.7046
恰恰是	-11.7047
转化率	-11.7047
每到	-11.7047
产后	-11.705
是他们	-11.705
放生	-11.705
在本	-11.7051
精神文明	-11.7051
前台	-11.7051
之多	-11.7051
外侧	-11.7052
事业的	-11.7052
量大	-11.7053
梦里	-11.7054
利亚	-11.7054
天花板	-11.7055
业务员	-11.7055
日夜	-11.7055
切断	-11.7057
内部的	-11.7057
供热	-11.7057
威尔	-11.7057
介绍一下	-11.7058
患处	-11.7058
满意度	-11.706
就够了	-11.706
下令	-11.706
就只能	-11.7062
极高	-11.7062
可以获得	-11.7063
嫌弃	-11.7063
什么地方	-11.7063
电阻	-11.7063
口服	-11.7064
雍正	-11.7064
生活习惯	-11.7065
1986	-11.7066
管理机构	-11.7066
点点	-11.7067
两个小时	-11.7069
绝对的	-11.7071
长期以来	-11.7071
落叶	-11.7073
的独特	-11.7073
止痛	-11.7074
海尔	-11.7074
准备工作	-11.7075
已经有了	-11.7075
霉	-11.7076
现在我们	-11.708
一季度	-11.7081
的歌	-11.7082
出院	-11.7082
也有很多	-11.7082
感受到了	-11.7083
幢	-11.7083
不懂得	-11.709
使学生	-11.7093
长线	-11.7093
社会责任	-11.7093
怎能	-11.7093
觉悟	-11.7095
偏好	-11.7096
不等于	-11.7098
的话语	-11.7099
向来	-11.7099
烟草	-11.71
一团	-11.7102
智者	-11.7102
套餐	-11.7103
主要用于	-11.7104
段落	-11.7105
是一座	-11.7107
1987	-11.7108
失败了	-11.7109
偏离	-11.7109
双脚	-11.7109
辽宁省	-11.7109
首饰	-11.711
伙	-11.7116
十分重要	-11.7117
经过了	-11.7117
的后果	-11.7117
腺	-11.7118
发脾气	-11.7119
在过去	-11.7119
之大	-11.712
室友	-11.712
原名	-11.7121
契约	-11.7121
扩建	-11.7121
桌面	-11.7121
准时	-11.7122
经济体	-11.7122
之感	-11.7122
的背景	-11.7122
万家	-11.7123
面料	-11.7123
立项	-11.7123
归属	-11.7123
搭档	-11.7124
明确了	-11.7125
徒弟	-11.7126
滑雪	-11.7127
这说明	-11.7127
退还	-11.7129
村委会	-11.7132
执行力	-11.7133
警示	-11.7134
合作的	-11.7135
焕	-11.7136
不留	-11.7136
局限	-11.7136
则为	-11.7136
自然界	-11.7137
之说	-11.7137
二楼	-11.7137
定理	-11.7138
各项工作	-11.7138
显然是	-11.7138
弧	-11.7139
男人的	-11.7139
一脚	-11.7141
地毯	-11.7141
95%	-11.7142
迦	-11.7143
认真地	-11.7143
畅销	-11.7143
瞪	-11.7144
万年	-11.7145
大雨	-11.7145
饭菜	-11.7146
扳	-11.7146
矫正	-11.7147
打招呼	-11.7147
逮捕	-11.7148
耿	-11.7148
常务副	-11.7149
自然的	-11.7151
的日子里	-11.7151
强者	-11.7151
交办的	-11.7151
趁着	-11.7151
所产生的	-11.7151
无限的	-11.7152
出现过	-11.7153
能源汽车	-11.7153
给您	-11.7154
了解了	-11.7155
抗生素	-11.7155
杂质	-11.7155
爱吃	-11.7157
不要把	-11.7157
舅	-11.7157
抑	-11.7159
藏在	-11.716
乐视	-11.716
房源	-11.7161
洁净	-11.7162
养育	-11.7163
应该说	-11.7163
这方面的	-11.7164
严密	-11.7165
二月	-11.7167
审视	-11.7168
风俗	-11.7168
变的	-11.7169
外围	-11.7169
泉水	-11.7169
可想而知	-11.717
我们家	-11.7171
虚实	-11.7171
职业技术	-11.7171
焰	-11.7171
的皮肤	-11.7172
正值	-11.7172
鸡汤	-11.7172
榜单	-11.7173
削弱	-11.7175
螺	-11.7175
合规	-11.7175
召回	-11.7177
改良	-11.7178
演示	-11.7179
喜欢你	-11.7179
吸取	-11.718
切忌	-11.7182
有幸	-11.7183
造就	-11.7183
一点儿	-11.7185
占据了	-11.7185
鲸	-11.7185
畔	-11.7186
心目中	-11.7187
的自我	-11.7187
暴涨	-11.7187
人民日报	-11.7187
是否能	-11.7189
市盈率	-11.7189
入职	-11.7191
议员	-11.7191
说一下	-11.7191
轴承	-11.7192
地势	-11.7192
减免	-11.7193
诛	-11.7194
会场	-11.7195
我也是	-11.7196
用完	-11.7196
最优	-11.7198
的国际	-11.7199
过关	-11.7199
迎合	-11.72
好吃的	-11.7201
给出了	-11.7201
你认为	-11.7203
施行	-11.7203
市场中	-11.7204
向着	-11.7205
全职	-11.7206
减持	-11.7206
产业的	-11.7207
经贸	-11.7208
无须	-11.7209
我不能	-11.7211
一个地方	-11.7212
之争	-11.7213
的产物	-11.7213
目前已	-11.7213
无边	-11.7215
想起来	-11.7215
而死	-11.7217
网吧	-11.7218
店面	-11.7218
老爷	-11.7219
甚至可以	-11.7219
在一定	-11.7219
博士生	-11.7219
以上学历	-11.722
不方便	-11.722
眼下	-11.7223
挪	-11.7225
夺取	-11.7226
航线	-11.7226
推断	-11.7226
名著	-11.7228
以下是	-11.7228
我便	-11.723
人是	-11.7232
87	-11.7232
140	-11.7233
山地	-11.7236
申诉	-11.7236
氨	-11.7236
逆转	-11.7236
招待	-11.7238
更多地	-11.724
装配	-11.724
排污	-11.724
不那么	-11.7245
研讨	-11.7245
行政区域	-11.7245
受欢迎	-11.7246
财税	-11.7247
新股	-11.7247
璧	-11.7248
意思是	-11.7248
那一年	-11.725
热血	-11.725
对口	-11.7251
农田	-11.7252
男孩子	-11.7253
投产	-11.7254
隐形	-11.7254
线上线下	-11.7255
的开发	-11.7256
护肤品	-11.7258
颠倒	-11.7259
小幅	-11.7259
前任	-11.7259
元左右	-11.726
黑客	-11.726
享受到	-11.7261
社会化	-11.7261
药店	-11.7261
争执	-11.7261
湖水	-11.7262
专门的	-11.7262
很想	-11.7262
推向	-11.7262
在欧洲	-11.7263
畸形	-11.7264
基本上是	-11.7264
分校	-11.7266
画出	-11.7266
思索	-11.7266
大一	-11.7266
向后	-11.7267
硬盘	-11.7267
坚固	-11.7267
一个非常	-11.7267
据此	-11.7268
你都	-11.727
跟我们	-11.7272
他不	-11.7273
大卫	-11.7273
的成果	-11.7273
很长时间	-11.7275
美感	-11.7275
哲学家	-11.7277
敬业	-11.7278
实施方案	-11.7281
课外	-11.7281
以下几个	-11.7282
革新	-11.7283
居家	-11.7284
沉浸在	-11.7284
到今天	-11.7284
溢价	-11.7285
测算	-11.7285
意识形态	-11.7286
组装	-11.7286
隆重	-11.7287
将自己的	-11.7287
卖了	-11.7287
帐篷	-11.7288
要靠	-11.7288
资格审查	-11.7291
船上	-11.7291
应当在	-11.7293
我以前	-11.7294
而得名	-11.7294
成就感	-11.7295
挽	-11.7296
奇葩	-11.7296
长征	-11.7297
人称	-11.7297
太少	-11.7297
衬衫	-11.7298
的粉丝	-11.7298
情趣	-11.7298
世界观	-11.7303
先用	-11.7303
一经	-11.7305
医护人员	-11.7306
民居	-11.7307
广阔的	-11.7307
月球	-11.7307
并能	-11.7309
-3	-11.7309
期内	-11.7309
不一	-11.731
对我的	-11.731
和自己	-11.7311
谁知	-11.7311
创作者	-11.7314
曾有	-11.7314
庆幸	-11.7315
其实也	-11.7316
的冲击	-11.7317
无处	-11.7318
器的	-11.7318
地里	-11.7318
这两年	-11.7318
也想	-11.732
管理体系	-11.7321
每隔	-11.7322
更适合	-11.7323
银行的	-11.7323
目前为止	-11.7323
跟风	-11.7324
必要时	-11.7325
几年前	-11.7328
爱的人	-11.7328
流年	-11.7328
推荐的	-11.7328
导致的	-11.7328
颐	-11.7328
狂欢	-11.7328
谦虚	-11.733
重叠	-11.733
可口	-11.7332
并发症	-11.7332
玉器	-11.7335
俏	-11.7338
掘	-11.7339
一派	-11.7341
壁画	-11.7341
也算	-11.7342
年报	-11.7342
公顷	-11.7342
不开心	-11.7342
诸佛	-11.7343
方能	-11.7343
这般	-11.7345
的日常	-11.7345
小狗	-11.7346
具有一定	-11.7347
历年	-11.7347
多功能	-11.7347
制的	-11.7349
呗	-11.7349
中发现	-11.735
进修	-11.7352
容纳	-11.7354
经纪	-11.7354
大神	-11.7355
豆瓣	-11.7355
首位	-11.7355
的女生	-11.7356
上前	-11.7356
是属于	-11.7356
每每	-11.7357
恢复了	-11.7359
这件	-11.7359
齿轮	-11.7362
师范	-11.7362
学士	-11.7363
第一条	-11.7364
他都	-11.7364
打入	-11.7365
不限	-11.7366
纯粹的	-11.7366
淡定	-11.7367
因此在	-11.7369
的气氛	-11.7369
颈部	-11.7369
规模化	-11.7369
sh	-11.7372
书房	-11.7373
此地	-11.7373
窖	-11.7374
梦境	-11.7378
小伙伴们	-11.7379
品格	-11.738
斯基	-11.738
内脏	-11.7381
输了	-11.7382
严格按照	-11.7384
生命力	-11.7385
气味	-11.7385
得罪	-11.7387
的气息	-11.7387
世家	-11.739
阴线	-11.7393
安娜	-11.7393
第二章	-11.7394
能给	-11.7394
钛	-11.7395
朦胧	-11.7395
被子	-11.7397
是啊	-11.7398
的那一刻	-11.7398
最小的	-11.7399
搬家	-11.74
伊拉克	-11.74
威力	-11.7401
点钟	-11.7401
ipo	-11.7402
部门的	-11.7402
曾说	-11.7403
高地	-11.7404
为了避免	-11.7404
小微企业	-11.7404
相关信息	-11.7404
比率	-11.7405
的中心	-11.7405
男主角	-11.7405
搬运	-11.7406
的时间内	-11.7406
法宝	-11.7406
默契	-11.7407
晚了	-11.7408
烦躁	-11.7408
也成为	-11.7408
吃惊	-11.7409
这家公司	-11.741
邢	-11.7412
招牌	-11.7413
睡着	-11.7417
端午节	-11.7418
脱发	-11.7418
紫外线	-11.7418
至上	-11.742
保额	-11.742
奥地利	-11.7423
太久	-11.7423
粽子	-11.7424
推翻	-11.7424
滚动	-11.7424
佛像	-11.7425
窗帘	-11.7426
睡了	-11.7426
阿根廷	-11.7426
较快	-11.7427
打听	-11.7427
下一代	-11.7428
一群人	-11.7429
而且在	-11.743
放了	-11.743
的年龄	-11.743
不着	-11.7432
白马	-11.7433
这个东西	-11.7433
还给	-11.7433
衰退	-11.7433
的效率	-11.7435
闻名	-11.7435
省钱	-11.7438
特殊情况	-11.7438
促成	-11.7438
的使命	-11.7439
▁本会	-11.7439
越来越高	-11.744
一个新	-11.744
的回忆	-11.744
职权	-11.744
草坪	-11.744
赚取	-11.744
腹泻	-11.7442
楷	-11.7444
妊娠	-11.7444
初三	-11.7444
莫过于	-11.7444
货架	-11.7445
在前	-11.7445
大家的	-11.7445
全额	-11.7446
认购	-11.7446
墙体	-11.7446
背离	-11.7447
也不想	-11.7447
两方面	-11.7447
羌	-11.7448
史记	-11.7448
日志	-11.7448
明日	-11.7448
填充	-11.745
要以	-11.745
颁奖	-11.7451
忧郁	-11.7451
指挥部	-11.7452
1-	-11.7453
总局	-11.7454
话语	-11.7455
挤压	-11.7455
每年的	-11.7459
缓冲	-11.746
历来	-11.746
波斯	-11.7461
老人家	-11.7461
离别	-11.7461
的步伐	-11.7461
入围	-11.7462
篇章	-11.7462
收割	-11.7465
而导致	-11.7466
北海	-11.7466
石家庄	-11.7466
这句	-11.7466
怎么看	-11.7467
女人的	-11.7467
指纹	-11.7469
阶段的	-11.7469
我曾	-11.7469
管理机关	-11.747
怪兽	-11.7472
小便	-11.7472
我怎么	-11.7472
我俩	-11.7474
检察	-11.7475
戴上	-11.7476
换取	-11.7477
也许会	-11.7478
职业教育	-11.748
苦苦	-11.748
隐蔽	-11.748
年华	-11.7481
能用	-11.7481
庄子	-11.7481
失效	-11.7481
疑似	-11.7482
不仅能	-11.7483
体贴	-11.7483
即使在	-11.7485
推介	-11.7485
调配	-11.7487
先将	-11.7487
的内涵	-11.7487
搞清楚	-11.7488
化疗	-11.7488
爱情的	-11.7488
做着	-11.7488
氟	-11.7489
筷子	-11.7491
不就是	-11.7491
卫视	-11.7491
废水	-11.7491
子宫	-11.7492
眼角	-11.7495
风流	-11.7496
功能的	-11.7499
公认的	-11.7499
分量	-11.7501
威廉	-11.7501
告诫	-11.7501
加了	-11.7502
隋	-11.7502
改制	-11.7503
屏蔽	-11.7503
只看	-11.7503
欠缺	-11.7504
责任心	-11.7505
是目前	-11.7506
一站式	-11.7507
鲜血	-11.7507
首要	-11.751
的年代	-11.7511
整形	-11.7511
太小	-11.7512
近年	-11.7513
感官	-11.7514
会选择	-11.7515
出示	-11.7516
伪装	-11.7516
本来是	-11.7516
就让	-11.7516
先前	-11.7516
稳固	-11.7518
被打	-11.7518
斥	-11.7519
听到了	-11.7519
曾国藩	-11.7519
在这一	-11.752
男的	-11.7521
废物	-11.7521
再加	-11.7521
说她	-11.7521
没收	-11.7522
企业经营	-11.7522
理财产品	-11.7523
沙特	-11.7524
西装	-11.7524
分包	-11.7524
建立在	-11.7524
▁B	-11.7526
限额	-11.7528
班里	-11.7529
统治者	-11.753
班上	-11.753
男方	-11.7533
不顺	-11.7533
马桶	-11.7534
来说是	-11.7534
矿物质	-11.7536
分支机构	-11.7536
领略	-11.7536
倾诉	-11.7538
方向盘	-11.7538
沦为	-11.7542
有的时候	-11.7542
驾驭	-11.7542
美洲	-11.7542
一起来	-11.7544
照亮	-11.7544
扮	-11.7544
差价	-11.7544
病症	-11.7545
引来	-11.7546
led	-11.7546
调用	-11.7547
措	-11.7547
减速	-11.7547
AR	-11.7548
为目标	-11.7549
开放的	-11.7549
并列	-11.7549
和地区	-11.755
医院的	-11.755
打仗	-11.7552
放宽	-11.7553
乐于	-11.7554
制度改革	-11.7554
剧组	-11.7554
家门	-11.7555
众多的	-11.7556
效能	-11.7558
就会出现	-11.7559
省内	-11.7559
寂静	-11.756
裙子	-11.7561
那么就	-11.7561
隔着	-11.7561
锅内	-11.7561
个交易日	-11.7562
一封	-11.7563
是一部	-11.7564
抵扣	-11.7565
辟	-11.7565
的意志	-11.7565
金黄	-11.757
工业大学	-11.7571
植入	-11.7572
蕴	-11.7572
这正是	-11.7572
某人	-11.7572
人次	-11.7573
出具的	-11.7574
臻	-11.7574
抒情	-11.7575
稀缺	-11.7576
为孩子	-11.7577
煎熬	-11.7577
爱因斯坦	-11.7579
思想的	-11.7579
第三章	-11.758
一步一步	-11.758
外面的	-11.7581
的主人	-11.7581
我们把	-11.7581
出错	-11.7581
大妈	-11.7582
重疾	-11.7583
任何时候	-11.7584
考了	-11.7584
生活费	-11.7585
抉择	-11.7585
置业	-11.7586
三家	-11.7586
**	-11.7586
我们从	-11.7587
名贵	-11.7589
关键在于	-11.759
是对的	-11.7591
不平	-11.7591
粉碎	-11.7592
继承人	-11.7592
93	-11.7593
抢劫	-11.7593
脸上的	-11.7593
推迟	-11.7593
合伙	-11.7594
放假	-11.7596
大使	-11.7596
拨打	-11.7597
的自然	-11.7598
反省	-11.7598
这个事情	-11.7599
深沉	-11.76
▁第三节	-11.76
一楼	-11.7602
县级以上	-11.7603
的技能	-11.7604
秉	-11.7604
告诉自己	-11.7605
十足	-11.7607
选中	-11.7607
脊柱	-11.7607
峪	-11.7608
真假	-11.7608
圣地	-11.7608
病理	-11.761
直通车	-11.7611
技术上	-11.7612
一倍	-11.7613
整车	-11.7614
不小的	-11.7614
当选	-11.7614
仇恨	-11.7614
出汗	-11.7615
有意思的	-11.7616
工程技术	-11.7617
菱	-11.7617
研究会	-11.7618
树枝	-11.7618
远比	-11.7618
了好多	-11.7621
笑着说	-11.7621
基本都是	-11.7621
出境	-11.7622
教学质量	-11.7623
参保	-11.7624
还有就是	-11.7626
陪我	-11.7626
毫不犹豫	-11.7627
是很难	-11.7627
无条件	-11.7628
似乎是	-11.7629
全面发展	-11.763
央电视台	-11.7631
进食	-11.7631
体能	-11.7632
很累	-11.7632
cd	-11.7633
万元以上	-11.7635
这种现象	-11.7636
南瓜	-11.7636
让人们	-11.7638
机能	-11.7638
精进	-11.7638
安然	-11.7639
梭	-11.764
金星	-11.764
集装箱	-11.7641
竞争优势	-11.7641
曦	-11.7643
之乡	-11.7643
嗓子	-11.7644
讨好	-11.7644
的意愿	-11.7645
要做的	-11.7646
就等于	-11.7647
为宜	-11.7647
中方	-11.7647
有意义	-11.7648
救灾	-11.7648
资金的	-11.765
道士	-11.7651
契机	-11.7652
多达	-11.7653
税务局	-11.7654
局局长	-11.7656
知道你	-11.7658
舍得	-11.7659
一直都	-11.766
容忍	-11.766
制度的	-11.7661
南阳	-11.7661
的真相	-11.7661
啼	-11.7661
东亚	-11.7661
玩笑	-11.7662
防线	-11.7662
亮度	-11.7663
求学	-11.7663
正直	-11.7664
生怕	-11.7667
命运的	-11.7668
的根源	-11.7669
间距	-11.7669
na	-11.7672
他用	-11.7672
使劲	-11.7672
有意义的	-11.7673
受了	-11.7673
所学	-11.7673
百余	-11.7674
第一章	-11.7674
你也可以	-11.7675
手套	-11.7675
研究表明	-11.7676
开示	-11.7676
五官	-11.7676
深渊	-11.7678
这在	-11.768
迭	-11.768
没见过	-11.7681
基本上都	-11.7681
头皮	-11.7682
迷人	-11.7682
葡萄牙	-11.7682
食盐	-11.7683
就无法	-11.7684
铺设	-11.7686
教育孩子	-11.7687
的审美	-11.7688
具备了	-11.7688
内饰	-11.7688
只是为了	-11.769
纽	-11.769
那人	-11.7692
营运	-11.7692
IC	-11.7693
龙门	-11.7695
颤抖	-11.7697
香油	-11.7698
吃苦	-11.7698
应用程序	-11.7698
方圆	-11.7699
谋划	-11.77
城县	-11.77
do	-11.7701
着实	-11.7701
滇	-11.7703
爬上	-11.7704
筹划	-11.7704
去寻找	-11.7705
展出	-11.7707
靠自己	-11.7707
厌	-11.7708
几条	-11.7709
孟子	-11.7709
学习能力	-11.7709
丛林	-11.7709
元旦	-11.7709
孤立	-11.7711
蛙	-11.7712
折叠	-11.7713
架子	-11.7713
出事	-11.7714
定额	-11.7715
顶端	-11.7715
精神的	-11.7716
请大家	-11.7718
买方	-11.7719
根治	-11.772
严格执行	-11.772
文凭	-11.7723
就叫	-11.7723
高清	-11.7724
以人为本	-11.7725
线段	-11.7726
一架	-11.7726
相比之下	-11.7727
不要让	-11.7727
段子	-11.7727
相似的	-11.7728
有缘	-11.7728
风气	-11.7729
组委会	-11.7729
才行	-11.773
看着他	-11.7731
很强	-11.7731
合作关系	-11.7731
绝不是	-11.7732
那时的	-11.7733
符合条件	-11.7734
发出的	-11.7734
个月的	-11.7735
殖民	-11.7736
理会	-11.7736
年薪	-11.7738
四人	-11.7738
保姆	-11.7738
疯狂的	-11.7739
徐州	-11.7739
有意思	-11.774
的团队	-11.7741
惬意	-11.7741
如图	-11.7741
不建议	-11.7741
五千	-11.7743
无用	-11.7744
倒下	-11.7745
入市	-11.7745
急剧	-11.7746
层的	-11.7746
讲过	-11.7746
激起	-11.7747
最喜欢	-11.7747
坦然	-11.7749
茸	-11.7749
用工	-11.7752
他知道	-11.7752
再也不	-11.7755
节课	-11.7755
拌匀	-11.7756
敏捷	-11.7757
和他们	-11.7757
非常好的	-11.7759
无视	-11.7759
出现问题	-11.7759
91	-11.776
中年	-11.776
补肾	-11.776
详见	-11.776
绝缘	-11.776
吉林省	-11.7761
我终于	-11.7761
存活	-11.7761
它能	-11.7761
氨基酸	-11.7761
至少有	-11.7761
接种	-11.7761
的网络	-11.7762
朱元璋	-11.7763
骆驼	-11.7763
朴实	-11.7764
的强大	-11.7764
急忙	-11.7765
在一旁	-11.7765
黎明	-11.7767
牵着	-11.7767
美化	-11.7768
灸	-11.7768
基本功	-11.7769
写出来	-11.7769
通畅	-11.7769
辜负	-11.777
懂事	-11.777
转变为	-11.7771
两张	-11.7772
二氧化碳	-11.7773
将他	-11.7773
在不同	-11.7774
黄帝	-11.7774
而有	-11.7774
旗下的	-11.7775
几千年	-11.7775
建构	-11.7777
将它	-11.7777
掏	-11.7778
杀菌	-11.7779
源源不断	-11.7779
前夕	-11.7781
我都会	-11.7782
清楚地	-11.7782
名下	-11.7782
周恩来	-11.7782
误导	-11.7783
妊娠纹	-11.7784
取得的	-11.7785
事物的	-11.7785
小鱼	-11.7788
山峰	-11.7788
就是一种	-11.7789
漂流	-11.779
不可或缺	-11.7791
剪辑	-11.7792
展现了	-11.7792
招呼	-11.7792
手艺	-11.7792
展望	-11.7794
大病	-11.7795
水域	-11.7797
王者	-11.7801
聚合	-11.7802
势必	-11.7802
如何在	-11.7803
举起	-11.7803
的起点	-11.7803
在一次	-11.7804
民事诉讼	-11.7804
在某些	-11.7805
对于一个	-11.7805
听从	-11.7806
成功地	-11.7806
历史悠久	-11.7806
陛下	-11.7807
简单地	-11.7807
百花	-11.7807
公务	-11.7808
数年	-11.7808
全长	-11.7808
涧	-11.781
脏腑	-11.781
会带来	-11.781
切入	-11.7811
面团	-11.7811
繁忙	-11.7811
高明	-11.7811
副总经理	-11.7812
这笔	-11.7814
此基础上	-11.7814
傻子	-11.7814
中国社会	-11.7815
配上	-11.7817
风波	-11.7817
地名	-11.7818
付出了	-11.7821
之外的	-11.7823
毯	-11.7823
莽	-11.7823
我们所	-11.7824
只有这样	-11.7825
为自己的	-11.7825
还很	-11.7827
上诉	-11.7827
棱	-11.7827
睡着了	-11.7828
工程项目	-11.783
不全	-11.783
之声	-11.783
商机	-11.7831
看不懂	-11.7832
为民	-11.7833
阳线	-11.7833
律师事务	-11.7834
史料	-11.7834
曾是	-11.7835
过量	-11.7835
类专业	-11.7835
人品	-11.7836
全面的	-11.7837
治好	-11.7837
乖乖	-11.7838
后代	-11.7838
青龙	-11.7839
下一次	-11.7839
经商	-11.784
死在	-11.7845
就如	-11.7848
把所有	-11.7848
年之后	-11.7849
战略合作	-11.785
的黑	-11.7851
狠狠	-11.7851
反驳	-11.7852
红尘	-11.7852
到家	-11.7853
副教授	-11.7854
可将	-11.7854
把它们	-11.7855
一家公司	-11.7855
就拿	-11.7855
剁	-11.7856
出海	-11.7856
用的是	-11.7858
山县	-11.7859
置换	-11.7862
中获得	-11.7862
缠绕	-11.7863
珍藏	-11.7863
的差别	-11.7864
等我	-11.7865
那句话	-11.7866
煲	-11.7866
不断提升	-11.7866
的成就	-11.7866
添加剂	-11.7867
限购	-11.7868
兵器	-11.7869
的气质	-11.787
夏日	-11.7872
执著	-11.7873
沐浴	-11.7874
他们说	-11.7875
于是他	-11.7876
如果把	-11.7876
他将	-11.7877
味精	-11.7877
崎	-11.7878
格林	-11.7878
的阳光	-11.7879
匙	-11.788
昼夜	-11.7881
生源	-11.7881
社长	-11.7881
围着	-11.7883
的希望	-11.7883
前段时间	-11.7883
景物	-11.7884
本是	-11.7884
眼中的	-11.7885
里程	-11.7885
时间来	-11.7885
分会	-11.7885
近百	-11.7888
助推	-11.7889
班的	-11.7889
袜子	-11.7889
的形状	-11.7889
面的	-11.789
由中国	-11.789
妄想	-11.7891
轻微	-11.7891
还会有	-11.7892
很差	-11.7893
产品和	-11.7893
大家一起	-11.7893
的民族	-11.7893
热潮	-11.7894
思绪	-11.7894
透彻	-11.7894
神州	-11.7895
跑去	-11.7895
赚到	-11.7896
命中	-11.7896
大大小小	-11.7896
乞丐	-11.7896
管家	-11.7896
你不是	-11.7896
虚空	-11.7898
惊奇	-11.7899
功力	-11.7899
的几率	-11.79
的喜爱	-11.79
出让	-11.79
会计师	-11.7901
并为	-11.7901
也不错	-11.7901
美妙	-11.7903
分析和	-11.7903
了几个	-11.7904
变化的	-11.7904
低成本	-11.7904
崇尚	-11.7905
收纳	-11.7905
送你	-11.7905
舔	-11.7906
被害人	-11.7906
薯	-11.7906
脉络	-11.7908
蠢	-11.7909
;3	-11.791
71	-11.791
总的来说	-11.791
把我们	-11.7912
座谈会	-11.7913
的顺序	-11.7913
桌子上	-11.7913
不平衡	-11.7913
CO	-11.7914
心生	-11.7915
后来的	-11.7916
检修	-11.7917
对外开放	-11.7917
1978	-11.7918
野外	-11.7918
主演的	-11.7918
着自己的	-11.792
放着	-11.792
更像是	-11.7921
深知	-11.7921
绥	-11.7921
翻身	-11.7921
表现在	-11.7922
久而久之	-11.7923
能让你	-11.7924
天王	-11.7924
场馆	-11.7926
降价	-11.7927
答应了	-11.7927
水肿	-11.7927
放过	-11.7928
泄漏	-11.7928
虑	-11.7929
前三	-11.7931
是多少	-11.7932
的作文	-11.7933
所以要	-11.7935
头像	-11.7935
换来	-11.7935
网址	-11.7936
攀升	-11.7937
闪光	-11.7937
笑脸	-11.7938
一个孩子	-11.7938
白发	-11.7938
复旦大学	-11.7939
渭	-11.794
▼	-11.794
慷慨	-11.794
▁杨	-11.7941
黑色的	-11.7942
产物	-11.7942
沉重的	-11.7945
加州	-11.7945
7000	-11.7947
山庄	-11.7949
活下去	-11.7949
都得	-11.795
不到位	-11.795
大明	-11.795
通话	-11.7951
预留	-11.7951
年第	-11.7952
理所当然	-11.7952
主宰	-11.7952
思想政治	-11.7953
南非	-11.7954
则会	-11.7954
切除	-11.7954
旅程	-11.7954
一念	-11.7954
十年前	-11.7956
表现得	-11.7956
下巴	-11.7956
浮动	-11.7956
来解决	-11.7957
人设	-11.7957
方法和	-11.7957
时间去	-11.7959
建模	-11.7959
建筑工程	-11.7963
丞相	-11.7964
陕	-11.7964
▁黄	-11.7965
迹象	-11.7966
不起来	-11.7966
安抚	-11.797
你得	-11.7971
抓紧	-11.7971
拳头	-11.7971
朕	-11.7972
首领	-11.7972
报到	-11.7973
他们就	-11.7973
金庸	-11.7975
不以	-11.7976
很多东西	-11.7976
取名	-11.7978
有两	-11.7979
特权	-11.7979
丝毫	-11.798
操盘	-11.798
排在	-11.798
靴	-11.798
不在于	-11.7981
环比	-11.7981
秃	-11.7982
住所	-11.7982
一系列的	-11.7983
──	-11.7983
慰	-11.7985
般若	-11.7985
价值投资	-11.7985
销售收入	-11.7985
在英国	-11.7988
人类社会	-11.7989
时间为	-11.7992
面具	-11.7993
优越	-11.7995
红外	-11.7995
可以达到	-11.7997
成为一名	-11.7999
大意	-11.7999
母子	-11.7999
他能	-11.7999
一节	-11.8
啸	-11.8
跳槽	-11.8001
下调	-11.8001
打扫	-11.8002
要么是	-11.8004
咽喉	-11.8005
期的	-11.8006
自由的	-11.8007
清热	-11.801
在深圳	-11.8011
厄	-11.8011
换个	-11.8012
战争中	-11.8015
订立	-11.8017
唯独	-11.8017
等活动	-11.8018
调侃	-11.802
€	-11.8022
流派	-11.8023
的事儿	-11.8026
的战争	-11.8027
▁第一章	-11.8028
出问题	-11.8028
可以先	-11.8029
微信群	-11.803
的正确	-11.8032
升学	-11.8034
患病	-11.8034
移交	-11.8034
逆境	-11.8034
!【	-11.8035
告诉了	-11.8038
开端	-11.8038
宏伟	-11.8039
拣	-11.8039
掠	-11.804
首家	-11.804
总算	-11.804
不舍	-11.8041
做了一个	-11.8041
的业绩	-11.8042
套房	-11.8044
封锁	-11.8044
张开	-11.8045
本期	-11.8045
慕容	-11.8045
写信	-11.8046
结晶	-11.8046
是把	-11.8047
让对方	-11.8047
ffer	-11.8047
连连	-11.8047
机身	-11.8048
村子	-11.805
就一直	-11.805
小时内	-11.8052
欣喜	-11.8053
全过程	-11.8055
职业道德	-11.8055
修饰	-11.8056
的结合	-11.8056
募集资金	-11.8057
家伙	-11.8058
团队的	-11.8059
部部长	-11.8059
书包	-11.806
乏力	-11.8061
骨折	-11.8061
也已经	-11.8061
来完成	-11.8062
ha	-11.8062
像一个	-11.8062
亦是	-11.8063
预料	-11.8063
另一半	-11.8063
背驰	-11.8064
领先的	-11.8065
hr	-11.8065
奢华	-11.8065
家公司	-11.8065
呵	-11.8066
宋朝	-11.8067
瘀	-11.8067
要根据	-11.8067
文化艺术	-11.8069
围绕着	-11.807
内容的	-11.807
▁地址	-11.8072
胜过	-11.8072
带了	-11.8073
躺在床上	-11.8074
案子	-11.8076
研究和	-11.8077
有更多的	-11.8079
文旅	-11.8079
纶	-11.8081
藩	-11.8081
每逢	-11.8083
竞价	-11.8083
描	-11.8084
挽救	-11.8084
着她	-11.8086
植被	-11.8089
交织	-11.8089
倒在	-11.809
加密	-11.809
那么我们	-11.8091
青春期	-11.8094
机器学习	-11.8094
那段时间	-11.8094
倒霉	-11.8095
爱上了	-11.8095
存货	-11.8096
无偿	-11.8098
无能	-11.8098
了解一下	-11.8098
幸好	-11.8099
诱导	-11.8099
im	-11.81
撞击	-11.8101
与社会	-11.8102
关键时刻	-11.8103
选址	-11.8106
马尔	-11.8106
打折	-11.8106
多变	-11.8107
回味	-11.8107
事业部	-11.8109
辛勤	-11.8109
剧院	-11.811
的小说	-11.811
三五	-11.8111
既可以	-11.8112
都不敢	-11.8112
相关专业	-11.8112
的是什么	-11.8113
等行业	-11.8114
浓郁	-11.8114
旋律	-11.8115
▁这是	-11.8116
放学	-11.8116
侵略	-11.8116
舒适的	-11.8116
地道	-11.8117
羊毛	-11.8118
学了	-11.8118
结实	-11.8119
让用户	-11.812
懒得	-11.8121
了一声	-11.8121
放缓	-11.8121
售卖	-11.8125
昔日	-11.8125
学派	-11.8126
点滴	-11.8126
知道他	-11.8126
肉类	-11.8127
觅	-11.8127
矩阵	-11.8128
也是一样	-11.8128
遗憾的是	-11.8129
什麽	-11.813
这一步	-11.813
风扇	-11.8131
武帝	-11.8132
弊	-11.8132
古朴	-11.8132
更强	-11.8133
玉石	-11.8135
自我介绍	-11.8136
我只能	-11.8137
为国家	-11.8138
匮乏	-11.8138
山寨	-11.8138
赛车	-11.8139
收敛	-11.814
届毕业生	-11.814
就很难	-11.8142
奥迪	-11.8142
说明书	-11.8143
比较好的	-11.8144
两个字	-11.8144
恤	-11.8144
谢谢你	-11.8145
恭敬	-11.8146
波浪	-11.8146
投稿	-11.8147
全校	-11.8148
打好	-11.8149
的组合	-11.8149
平坦	-11.815
方式进行	-11.8151
牵挂	-11.8152
饥	-11.8152
外国语	-11.8154
应该有	-11.8154
阿拉	-11.8154
已成	-11.8155
池塘	-11.8155
每晚	-11.8156
妈妈说	-11.8156
质量管理	-11.8156
的调整	-11.8157
洛杉矶	-11.8159
用什么	-11.8162
督察	-11.8162
一个叫	-11.8163
抓住了	-11.8163
事事	-11.8163
世界级	-11.8163
人来说	-11.8164
窥	-11.8165
吸纳	-11.8165
美德	-11.8166
的焦点	-11.8166
-12	-11.8166
生鲜	-11.8167
无数的	-11.8167
和文化	-11.8168
黑豆	-11.8171
这个社会	-11.8173
本来就是	-11.8173
救人	-11.8173
App	-11.8173
日趋	-11.8173
恋情	-11.8174
陌生的	-11.8176
生态系统	-11.8176
的世界里	-11.8177
至少要	-11.8178
菇	-11.8179
嗨	-11.8179
港股	-11.818
全国人大	-11.818
规模最大	-11.818
相关工作	-11.8181
我先	-11.8181
撰	-11.8181
问你	-11.8182
海峡	-11.8184
是一项	-11.8185
碘	-11.8185
意象	-11.8186
北极	-11.8186
财报	-11.8187
年代初	-11.8187
▁第二	-11.8188
个人认为	-11.8189
取胜	-11.819
捆绑	-11.819
数次	-11.819
亚太	-11.8191
学姐	-11.8191
也许你	-11.8191
无线电	-11.8193
2500	-11.8193
戎	-11.8194
看懂	-11.8194
要坚持	-11.8195
后市	-11.8195
都用	-11.8196
改建	-11.8196
严峻	-11.8196
的表演	-11.8197
贵阳	-11.8199
愚蠢	-11.8199
光阴	-11.82
研究者	-11.8201
商品的	-11.8201
献给	-11.8201
计入	-11.8203
低碳	-11.8203
因为这个	-11.8204
初恋	-11.8205
混淆	-11.8205
水平的	-11.8206
按键	-11.8207
的运行	-11.8208
ID	-11.821
脑海里	-11.8211
厚重	-11.8212
眉毛	-11.8212
三个方面	-11.8212
也罢	-11.8214
打包	-11.8214
揭露	-11.8215
靠谱	-11.8215
得上	-11.8217
相声	-11.8218
陆地	-11.8219
代言	-11.8219
反而会	-11.8219
局机关	-11.8219
二期	-11.8219
草木	-11.8221
却也	-11.8221
体系的	-11.8221
工伤	-11.8222
蜜蜂	-11.8222
深造	-11.8222
送来	-11.8224
位列	-11.8224
可以得到	-11.8225
两项	-11.8225
进驻	-11.8225
而是在	-11.8225
和精力	-11.8226
高质量的	-11.8227
绿茶	-11.8229
哈哈哈	-11.8229
遇到的	-11.823
西汉	-11.823
事实证明	-11.823
立志	-11.8233
把控	-11.8234
印章	-11.8235
工夫	-11.8235
或多或少	-11.8235
皖	-11.8236
几乎都	-11.8236
范围内的	-11.8236
改装	-11.8236
后就	-11.8237
的困难	-11.8237
猎人	-11.8237
首创	-11.8237
糖果	-11.8239
这个名字	-11.8239
轰动	-11.8239
矢	-11.824
拉萨	-11.824
将被	-11.8241
希望通过	-11.8241
前提是	-11.8241
只做	-11.8241
不能说	-11.8241
海内外	-11.8242
案件的	-11.8245
我做	-11.8245
自立	-11.8246
过早	-11.8247
话语权	-11.8248
语句	-11.8248
颠	-11.8249
持有的	-11.8249
身边的人	-11.825
so	-11.8251
那句	-11.8252
絮	-11.8254
的价值观	-11.8254
周线	-11.8254
第四条	-11.8255
接地	-11.8255
海棠	-11.8255
免费的	-11.8256
跨国	-11.8257
经济的	-11.8258
实训	-11.8259
众筹	-11.8259
克拉	-11.826
几十万	-11.826
丫头	-11.826
ml	-11.8261
通货膨胀	-11.8264
分层	-11.8264
谁是	-11.8264
缝隙	-11.8264
目标是	-11.8264
愧	-11.8265
be	-11.8266
顾虑	-11.8266
》;	-11.8267
悠	-11.8267
应及时	-11.8268
饱和	-11.8269
我第一次	-11.8269
在床上	-11.827
汉代	-11.8272
简直就是	-11.8273
让其	-11.8273
用过	-11.8273
油价	-11.8273
空虚	-11.8273
想说	-11.8274
红酒	-11.8274
也很难	-11.8275
排骨	-11.8275
可不是	-11.8275
草莓	-11.8276
盐水	-11.8276
哥们	-11.8276
▁第四百	-11.8276
人不	-11.8276
爱尔兰	-11.8279
按下	-11.8279
宠爱	-11.828
要将	-11.8281
涨跌	-11.8282
鬼神	-11.8284
五种	-11.8285
榆	-11.8285
me	-11.8285
的次数	-11.8286
人说	-11.8286
势头	-11.8287
之首	-11.8287
骑行	-11.8287
。△	-11.8288
大跌	-11.8288
洗脸	-11.8288
的成分	-11.8289
里边	-11.829
秤	-11.829
还挺	-11.829
制裁	-11.8291
乾坤	-11.8291
发生过	-11.8291
会自动	-11.8292
始建于	-11.8295
围观	-11.8295
垣	-11.8295
公布了	-11.8296
商圈	-11.8296
它就	-11.8298
叛逆	-11.83
卖方	-11.83
打到	-11.8301
数控	-11.8303
个城市	-11.8305
熊猫	-11.8306
吃什么	-11.8308
以下的	-11.8308
财经大学	-11.8308
长大后	-11.8308
天线	-11.8309
的营销	-11.831
一生中	-11.8311
竿	-11.8312
秘方	-11.8312
潜在的	-11.8314
最好不要	-11.8315
无心	-11.8316
法语	-11.8317
惧	-11.8317
挪威	-11.8317
就直接	-11.8318
发展前景	-11.8318
一角	-11.832
的描述	-11.832
大力支持	-11.8321
为主体	-11.8322
好奇心	-11.8322
转账	-11.8322
预售	-11.8323
结果是	-11.8325
出众	-11.8325
洞察	-11.8325
均价	-11.8326
跟大家	-11.8326
83	-11.8326
充值	-11.8327
为难	-11.8328
槐	-11.8328
第三天	-11.8328
武将	-11.8328
轮流	-11.8328
增添	-11.8328
地问	-11.8329
不免	-11.8329
制冷	-11.8329
分发	-11.8329
九十	-11.833
音箱	-11.833
年被	-11.8331
有位	-11.8331
集结	-11.8331
工作量	-11.8331
植株	-11.8331
总是在	-11.8332
帮助孩子	-11.8332
雇	-11.8332
寒冬	-11.8333
还需	-11.8333
我们有	-11.8333
在空中	-11.8334
德尔	-11.8335
固体	-11.8336
掷	-11.8336
任教	-11.8337
两层	-11.8337
竭	-11.8337
是根据	-11.8339
教育资源	-11.834
作弊	-11.834
的帮助下	-11.8341
三类	-11.8342
特地	-11.8342
外墙	-11.8343
片中	-11.8343
眼界	-11.8344
比丘	-11.8345
之神	-11.8345
希望能够	-11.8346
的流量	-11.8347
都属于	-11.8347
高等学校	-11.8348
的一位	-11.8349
应以	-11.8349
创下	-11.835
生活水平	-11.835
注册资本	-11.8351
停下	-11.8351
而不能	-11.8352
am	-11.8354
考官	-11.8354
拥护	-11.8355
察觉	-11.8355
更喜欢	-11.8355
摇滚	-11.8356
本条例	-11.8356
强壮	-11.8356
绮	-11.8357
满怀	-11.8357
这支	-11.8357
骗局	-11.8358
抵制	-11.8359
泛滥	-11.8359
与自己	-11.836
主要负责	-11.836
抢占	-11.836
劝说	-11.836
入股	-11.8361
殊	-11.8361
正处于	-11.8361
愧疚	-11.8362
青蛙	-11.8362
开幕	-11.8363
行者	-11.8364
橘	-11.8365
设计和	-11.8366
猜想	-11.8366
3-4	-11.8366
也没什么	-11.8366
追捧	-11.8367
他觉得	-11.8367
以往的	-11.8367
电影院	-11.8368
较差	-11.8371
贯通	-11.8371
友人	-11.8372
优美的	-11.8372
的大门	-11.8373
坚实的	-11.8375
上路	-11.8375
辗转	-11.8377
藕	-11.8377
蔚	-11.8377
净值	-11.8378
那一天	-11.8378
应试	-11.8381
这首	-11.8381
吃药	-11.8382
通关	-11.8382
赢了	-11.8383
层面的	-11.8383
与我	-11.8384
博主	-11.8386
双腿	-11.8387
天门	-11.8388
今天我们	-11.8388
责令	-11.8389
高楼	-11.8389
我们去	-11.8389
花朵	-11.839
怯	-11.8391
1982	-11.8391
要做好	-11.8392
澄清	-11.8392
的最后一	-11.8393
高新	-11.8394
很像	-11.8395
一滴	-11.8395
的恐惧	-11.8395
对人	-11.8396
安全隐患	-11.8397
工作效率	-11.8397
二十五	-11.8398
时应	-11.8399
实则	-11.8399
监管部门	-11.84
生命周期	-11.84
归于	-11.8401
人民银行	-11.8401
的事件	-11.8402
写好	-11.8402
大概率	-11.8403
三年级	-11.8404
广义	-11.8404
独有的	-11.8405
稀释	-11.8405
的喜悦	-11.8406
一曲	-11.8407
编织	-11.8407
友们	-11.8407
诊所	-11.8409
带你	-11.8409
离家	-11.8409
厢	-11.8412
光源	-11.8412
静止	-11.8413
服务商	-11.8414
方程	-11.8414
信徒	-11.8415
之城	-11.8416
网络上	-11.8416
可以做到	-11.8418
净资产	-11.8418
高品质	-11.8419
时间是	-11.842
越过	-11.842
上岸	-11.8421
炎症	-11.8423
新材料	-11.8424
5%,	-11.8425
这个方法	-11.8426
出了问题	-11.8427
启用	-11.8428
西药	-11.8428
要保持	-11.8429
服务体系	-11.8431
有多么	-11.8432
他还是	-11.8432
不得超过	-11.8433
郊区	-11.8434
军工	-11.8435
最有效的	-11.8435
甘肃省	-11.8435
参与了	-11.8436
教育和	-11.8436
吃掉	-11.8436
金币	-11.8437
终极	-11.8439
央	-11.844
过剩	-11.844
成长为	-11.844
兰花	-11.8441
万人次	-11.8442
的物品	-11.8442
老妈	-11.8443
你为什么	-11.8443
慰问	-11.8444
收紧	-11.8444
方法论	-11.8445
构件	-11.8446
都有自己	-11.8446
固执	-11.8446
药材	-11.8447
走去	-11.8447
LED	-11.8447
轿	-11.8448
网购	-11.8448
感触	-11.8449
对身体	-11.8449
即使你	-11.8451
关键的	-11.8452
宽带	-11.8452
部份	-11.8452
灾区	-11.8453
转眼	-11.8454
喧嚣	-11.8456
认可的	-11.8456
不放	-11.8457
三宝	-11.8458
微信公众	-11.8458
成年	-11.8459
前去	-11.8459
三个人	-11.8459
娱	-11.846
胃口	-11.846
图文	-11.8461
期末	-11.8462
ed	-11.8463
意义上	-11.8463
的战斗	-11.8463
皆是	-11.8464
字形	-11.8465
抛出	-11.8465
的对话	-11.8466
洗涤	-11.8466
的监督	-11.8466
获胜	-11.8467
损耗	-11.8467
墓地	-11.8467
明朗	-11.847
近距离	-11.847
她又	-11.8472
我今天	-11.8472
陪同	-11.8473
秦始皇	-11.8473
无非是	-11.8474
雇主	-11.8474
可以实现	-11.8474
瞩目	-11.8475
归还	-11.8475
信息公开	-11.8475
好看的	-11.8475
试用期	-11.8477
殿堂	-11.8478
解开	-11.8479
引力	-11.8481
传动	-11.8482
[...]
